{"<unk>":0,"<s>":1,"</s>":2,"!":3,"\"":4,"#":5,"$":6,"%":7,"&":8,"'":9,"(":10,")":11,"*":12,"+":13,",":14,"-":15,".":16,"/":17,"0":18,"1":19,"2":20,"3":21,"4":22,"5":23,"6":24,"7":25,"8":26,"9":27,":":28,";":29,"<":30,"=":31,">":32,"?":33,"@":34,"A":35,"B":36,"C":37,"D":38,"E":39,"F":40,"G":41,"H":42,"I":43,"J":44,"K":45,"L":46,"M":47,"N":48,"O":49,"P":50,"Q":51,"R":52,"S":53,"T":54,"U":55,"V":56,"W":57,"X":58,"Y":59,"Z":60,"[":61,"\\":62,"]":63,"^":64,"_":65,"`":66,"a":67,"b":68,"c":69,"d":70,"e":71,"f":72,"g":73,"h":74,"i":75,"j":76,"k":77,"l":78,"m":79,"n":80,"o":81,"p":82,"q":83,"r":84,"s":85,"t":86,"u":87,"v":88,"w":89,"x":90,"y":91,"z":92,"{":93,"|":94,"}":95,"~":96,"¡":97,"¢":98,"£":99,"¤":100,"¥":101,"¦":102,"§":103,"¨":104,"©":105,"ª":106,"«":107,"¬":108,"®":109,"¯":110,"°":111,"±":112,"²":113,"³":114,"´":115,"µ":116,"¶":117,"·":118,"¸":119,"¹":120,"º":121,"»":122,"¼":123,"½":124,"¾":125,"¿":126,"À":127,"Á":128,"Â":129,"Ã":130,"Ä":131,"Å":132,"Æ":133,"Ç":134,"È":135,"É":136,"Ê":137,"Ë":138,"Ì":139,"Í":140,"Î":141,"Ï":142,"Ð":143,"Ñ":144,"Ò":145,"Ó":146,"Ô":147,"Õ":148,"Ö":149,"×":150,"Ø":151,"Ù":152,"Ú":153,"Û":154,"Ü":155,"Ý":156,"Þ":157,"ß":158,"à":159,"á":160,"â":161,"ã":162,"ä":163,"å":164,"æ":165,"ç":166,"è":167,"é":168,"ê":169,"ë":170,"ì":171,"í":172,"î":173,"ï":174,"ð":175,"ñ":176,"ò":177,"ó":178,"ô":179,"õ":180,"ö":181,"÷":182,"ø":183,"ù":184,"ú":185,"û":186,"ü":187,"ý":188,"þ":189,"ÿ":190,"Ā":191,"ā":192,"Ă":193,"ă":194,"Ą":195,"ą":196,"Ć":197,"ć":198,"Ĉ":199,"ĉ":200,"Ċ":201,"ċ":202,"Č":203,"č":204,"Ď":205,"ď":206,"Đ":207,"đ":208,"Ē":209,"ē":210,"Ĕ":211,"ĕ":212,"Ė":213,"ė":214,"Ę":215,"ę":216,"Ě":217,"ě":218,"Ĝ":219,"ĝ":220,"Ğ":221,"ğ":222,"Ġ":223,"ġ":224,"Ģ":225,"ģ":226,"Ĥ":227,"ĥ":228,"Ħ":229,"ħ":230,"Ĩ":231,"ĩ":232,"Ī":233,"ī":234,"Ĭ":235,"ĭ":236,"Į":237,"į":238,"İ":239,"ı":240,"Ĳ":241,"ĳ":242,"Ĵ":243,"ĵ":244,"Ķ":245,"ķ":246,"ĸ":247,"Ĺ":248,"ĺ":249,"Ļ":250,"ļ":251,"Ľ":252,"ľ":253,"Ŀ":254,"ŀ":255,"Ł":256,"ł":257,"Ń":258,"ä¸":259,"ï¼":260,"çļ":261,"çļĦ":262,"ï¼Į":263,"ãĢ":264,"ãĢĤ":265,"äº":266,"ä»":267,"åı":268,"æľ":269,"æĪ":270,"è¿":271,"ä½":272,"åħ":273,"å¤":274,"ä¸Ģ":275,"æĺ":276,"è¯":277,"åľ":278,"çĶ":279,"åĴ":280,"åĪ":281,"æĸ":282,"å®":283,"åĴĮ":284,"åĬ":285,"åĲ":286,"æĺ¯":287,"ä¹":288,"ãĢģ":289,"ĥ½":290,"æĪĳ":291,"ç»":292,"ä»¥":293,"äºº":294,"åľ¨":295,"èĥ½":296,"åı¯":297,"ä¸ª":298,"è®":299,"åŃ":300,"å°":301,"æĹ":302,"å¸":303,"åº":304,"æĿ":305,"æľī":306,"éĢ":307,"ä¼":308,"éĩ":309,"çļĦæ":310,"åĮ":311,"å¥":312,"å·":313,"è¿Ļ":314,"çİ":315,"åĨ":316,"ç§":317,"é¢":318,"çŃ":319,"ä¸Ń":320,"åı¯ä»¥":321,"åĽ":322,"çĶŁ":323,"è¦":324,"è§":325,"è¦ģ":326,"äºĨ":327,"éĹ":328,"åĩ":329,"çī":330,"å¯":331,"ä»¬":332,"ä¿":333,"è¡":334,"ä¸º":335,"å¹":336,"å¦":337,"å½":338,"å¾":339,"ä¸į":340,"å¼":341,"çĶ¨":342,"èĢ":343,"æĿ¥":344,"æĻ":345,"å¦Ĥ":346,"æĢ":347,"æĬ":348,"æı":349,"æĸĩ":350,"ä½ł":351,"å¥½":352,"æķ":353,"äºİ":354,"çŃī":355,"éĿ":356,"æŃ":357,"æĥ":358,"ä¸Ģä¸ª":359,"æ³":360,"æŀ":361,"æī":362,"èĩ":363,"æ°":364,"æĦ":365,"æĤ":366,"åĵ":367,"æĪĲ":368,"çĲ":369,"æıĲ":370,"ä¾":371,"ï¼Ł":372,"çĽ":373,"åħ³":374,"äºĽ":375,"æĽ":376,"æĹ¶":377,"åį":378,"åľ°":379,"è¡Į":380,"æİ":381,"ä¼ļ":382,"å¿":383,"ç«":384,"åĳ":385,"å·¥":386,"æł":387,"æĤ¨":388,"åĪ°":389,"å¯¹":390,"æĸ¹":391,"ä¿Ŀ":392,"é¢ĺ":393,"ä¸ĭ":394,"å±":395,"æĭ":396,"åŃ¦":397,"æĪĸ":398,"èĩª":399,"æµ":400,"é£":401,"éľ":402,"ï¼ļ":403,"åİ":404,"æĽ´":405,"åıĳ":406,"éĹ®":407,"çī©":408,"æĻº":409,"åĬ¨":410,"æĪĳä»¬":411,"çļĦç":412,"å¤ļ":413,"è´":414,"çĦ":415,"æĻºèĥ½":416,"æĶ":417,"éľĢ":418,"æ´":419,"ä¸Ĭ":420,"æ¸":421,"ä½ĵ":422,"å¤©":423,"å¤§":424,"åŁ":425,"èµ":426,"ç§į":427,"ä½ľ":428,"æ¯":429,"åºĶ":430,"çİ¯":431,"çĦ¶":432,"æĮ":433,"åĩº":434,"è¿ĩ":435,"ä»ĸ":436,"è¯·":437,"ç±":438,"åĮĸ":439,"éĿ¢":440,"åģ":441,"ç«ł":442,"åĬĽ":443,"éĢļ":444,"æĸĩç«ł":445,"éľĢè¦ģ":446,"åĪĨ":447,"çĲĨ":448,"åĲĮ":449,"çİ°":450,"æľĢ":451,"å®ĥ":452,"ä¹Ł":453,"éĻ":454,"æĬĢ":455,"å¥½çļĦ":456,"è¶":457,"æ³ķ":458,"å¢":459,"ç±»":460,"äººå·¥":461,"å¸¸":462,"èī":463,"æĢ§":464,"äººå·¥æĻºèĥ½":465,"çĿ":466,"è¾":467,"ä¹Ī":468,"è¿Ľ":469,"åŃĲ":470,"çº":471,"æį":472,"æ¬":473,"æ²":474,"åħ¶":475,"å¸®":476,"è§£":477,"éĹ®é¢ĺ":478,"é«":479,"èĬ":480,"æŀľ":481,"éĩį":482,"é«ĺ":483,"æľº":484,"åĬł":485,"éĺ":486,"æ±":487,"éģ":488,"å°Ĩ":489,"ä¸ĢäºĽ":490,"è½":491,"åº¦":492,"çĿĢ":493,"å®ļ":494,"æĥħ":495,"ä¾Ľ":496,"æľ¯":497,"ç®":498,"å½ĵ":499,"çĤ":500,"å¹¶":501,"çĸ":502,"èĢĮ":503,"ç¯":504,"æĦŁ":505,"å°ı":506,"åĬ©":507,"ç»Ļ":508,"æ°Ķ":509,"ä¸»":510,"æĥ³":511,"ç¯ĩ":512,"æıĲä¾Ľ":513,"æĦı":514,"æģ":515,"çľ":516,"å½±":517,"ä½¿":518,"æ´»":519,"è°":520,"æŁ":521,"ä¹ĭ":522,"åħ³äºİ":523,"å±ķ":524,"æĸ°":525,"åĽł":526,"åĵģ":527,"éĩı":528,"ç¡":529,"ä¸İ":530,"åı¯èĥ½":531,"æį®":532,"éĹ´":533,"åĨĻ":534,"å®¶":535,"ç³":536,"ç¨":537,"¾İ":538,"èĢħ":539,"ä¹ł":540,"å¾Ĺ":541,"ä»İ":542,"èī²":543,"éĥ½":544,"å¢ĥ":545,"ç»ı":546,"ä¿¡":547,"å¿ĥ":548,"æŃ¤":549,"è®©":550,"æķ°":551,"äºĭ":552,"è¯Ń":553,"ç©":554,"é¦":555,"å®ŀ":556,"èĤ":557,"éļ":558,"ä¸ļ":559,"å»":560,"è¿ĺ":561,"åıĸ":562,"åħ·":563,"åī":564,"ç¡®":565,"åıĺ":566,"çŁ":567,"åĮ»":568,"é£Ł":569,"å¤ĸ":570,"ä»Ģ":571,"åĲĪ":572,"ä»Ģä¹Ī":573,"çĲĥ":574,"åĸ":575,"æ°´":576,"éĤ":577,"ç§ĳ":578,"ç¤":579,"æ·":580,"çī¹":581,"çĤ¹":582,"å¼ı":583,"å¼Ģ":584,"å¸®åĬ©":585,"å»º":586,"ç´":587,"çĶŁæĪĲ":588,"çĶµ":589,"çİ¯å¢ĥ":590,"çĽ¸":591,"åħ¨":592,"ç¾İ":593,"å¦Ĥæŀľ":594,"æģ¯":595,"ä½Ĩ":596,"éĶ":597,"çķ":598,"åĮħ":599,"å¾Ī":600,"æĬĢæľ¯":601,"åıĳå±ķ":602,"çĭ":603,"ç¨ĭ":604,"åĽ½":605,"æ¯Ķ":606,"ç³»":607,"æľ¬":608,"é¢Ĩ":609,"æľª":610,"åĪ¶":611,"åŃ¦ä¹ł":612,"èį":613,"çĥ":614,"é£İ":615,"åĢ":616,"è¿Ļä¸ª":617,"åĲİ":618,"åŁŁ":619,"éĤ£":620,"éĩĮ":621,"åĪĽ":622,"åģ¥":623,"ä½¿çĶ¨":624,"æĺİ":625,"è®¡":626,"ç½":627,"èģ":628,"åıĬ":629,"è¢":630,"æĮģ":631,"åĨħ":632,"ä»£":633,"äº§":634,"è¡¨":635,"èµ·":636,"ä¸Ģç¯ĩ":637,"ä¾ĭ":638,"åĲĹ":639,"çĸĹ":640,"åºĶçĶ¨":641,"åŀ":642,"èº":643,"åħ¥":644,"æīĢ":645,"éĢļè¿ĩ":646,"é¢ĨåŁŁ":647,"çİ¯ä¿Ŀ":648,"äººç±»":649,"å°ĳ":650,"éķ":651,"è·":652,"æĹł":653,"æĹ¥":654,"åıĹ":655,"è¿Ľè¡Į":656,"æ»":657,"æº":658,"èº«":659,"è¯´":660,"èĬĤ":661,"èĲ":662,"åĻ":663,"éĿŀ":664,"æĬ¤":665,"è¿ĻäºĽ":666,"ä¿¡æģ¯":667,"åħ¬":668,"æ¸¸":669,"åĵį":670,"éĽ":671,"åĻ¨":672,"ä½ķ":673,"è¯Ŀ":674,"æľªæĿ¥":675,"çĶŁæ´»":676,"åı¥":677,"åĲį":678,"åĩı":679,"äº¤":680,"éĢī":681,"æĺ¯ä¸Ģ":682,"éĩįè¦ģ":683,"åĬ¡":684,"çľĭ":685,"æĭ¬":686,"æł·":687,"çļĦæĸĩç«ł":688,"åħī":689,"å¹´":690,"çĪ":691,"è¢«":692,"åīį":693,"å¤Ħ":694,"æĹħ":695,"éĢĤ":696,"åº·":697,"å½±åĵį":698,"åİ»":699,"èĻ":700,"è¯¥":701,"éģĵ":702,"æĸŃ":703,"éĥ":704,"è®®":705,"åĿ":706,"å·±":707,"åĮħæĭ¬":708,"è¿°":709,"è´¨":710,"èĩªå·±":711,"ä»»":712,"åģ¥åº·":713,"éķ¿":714,"é¥":715,"æºĲ":716,"èĩªçĦ¶":717,"ç¼":718,"çģ":719,"åĨ³":720,"ç»ĻæĪĳ":721,"å¤Ł":722,"æµ·":723,"é¡":724,"å¸Ĥ":725,"é¦ĸ":726,"æŃ£":727,"æ¬¢":728,"æĶ¾":729,"ä¾ĭå¦Ĥ":730,"ä»¥ä¸ĭ":731,"æ·±":732,"æĻ¯":733,"è¯Ĺ":734,"è¯Ĩ":735,"åĸľ":736,"çł":737,"ä¹Ĳ":738,"ç»Ł":739,"æ¯ı":740,"æ®":741,"æİ¨":742,"éĿŀå¸¸":743,"å¹³":744,"æ¶":745,"ç®Ĺ":746,"ä¿ĿæĬ¤":747,"çĽ®":748,"éĥ¨":749,"éŁ":750,"éħ":751,"å¸¦":752,"åĨĻä¸Ģç¯ĩ":753,"åĽŀ":754,"çĹ":755,"å®¹":756,"ç¤¾":757,"ä¸įåĲĮ":758,"æĺŁ":759,"è®¾":760,"æķĪ":761,"å¤ı":762,"äººä»¬":763,"æĸ¹éĿ¢":764,"æ³¨":765,"åľº":766,"åĪ«":767,"çŁ¥":768,"ç¥":769,"éª":770,"åĪ©":771,"ç©º":772,"ç¬":773,"ä¸ĸ":774,"åĲĮæĹ¶":775,"å»ºè®®":776,"åŃĹ":777,"åĮ»çĸĹ":778,"çķĮ":779,"ç»ĵ":780,"æ±Ĥ":781,"å£":782,"èĥ½å¤Ł":783,"èĪ":784,"åĲĦ":785,"æĸ¹å¼ı":786,"è¨":787,"ä»ĸä»¬":788,"è±":789,"å¼º":790,"åŀĭ":791,"åķ":792,"è¨Ģ":793,"ï¼ģ":794,"éŁ³":795,"åģļ":796,"æµģ":797,"åĩĨ":798,"è¯ķ":799,"é»":800,"æĪĸèĢħ":801,"èĥ":802,"æł¹":803,"æĭ©":804,"å§":805,"æ¡":806,"éĢīæĭ©":807,"åĩıå°ĳ":808,"è¶Ĭ":809,"çĮ":810,"æľŁ":811,"è®º":812,"å¹¿":813,"èĢĥ":814,"å®ī":815,"èĦ":816,"ä½į":817,"å½ĵçĦ¶":818,"é©":819,"ä»¥åıĬ":820,"éĺ³":821,"æŃ¥":822,"çŃĶ":823,"åĳĬ":824,"æıĲé«ĺ":825,"å½¢":826,"æīĭ":827,"å®ĥä»¬":828,"éĢł":829,"çĪ±":830,"æ®µ":831,"åĵª":832,"ä¸Ģä¸ĭ":833,"æĸĻ":834,"åıª":835,"è§Ĥ":836,"èĭ":837,"åİĨ":838,"åħ·ä½ĵ":839,"æİ¥":840,"ä¸ŃçļĦ":841,"æķ°æį®":842,"å°±":843,"çļĦæķ":844,"ä¼ł":845,"éļı":846,"ä»¶":847,"é¢Ħ":848,"ä¸ªäºº":849,"æľºåĻ¨":850,"æĹ¶éĹ´":851,"æĽ´åĬł":852,"å¯¼":853,"æł¹æį®":854,"çĻ":855,"æ¸©":856,"ç§ĳæĬĢ":857,"ħäºĭ":858,"èĬ±":859,"ç²":860,"å¤ª":861,"åºĶè¯¥":862,"æī¾":863,"ãĢĬ":864,"ãĢĭ":865,"æ¼":866,"çĬ":867,"æ¬¡":868,"æļ":869,"è¯į":870,"æĺ¯ä¸Ģä¸ª":871,"è¿Ĳ":872,"åŁİ":873,"æľį":874,"å¦Ĥä½ķ":875,"æ²¡":876,"çĶ±":877,"è§Ĩ":878,"åĸľæ¬¢":879,"åŁº":880,"æĶ¹":881,"å·²":882,"éĢļå¸¸":883,"ä¸ĸçķĮ":884,"æĮĩ":885,"åĮº":886,"æıı":887,"åħ¶ä»ĸ":888,"ï¼ī":889,"åĳ³":890,"åĲĳ":891,"çĭĹ":892,"å¿«":893,"æĢĿ":894,"é¸":895,"ç´ł":896,"æŃĮ":897,"æĢģ":898,"æıĲåıĸ":899,"è½»":900,"åı£":901,"æĢ»":902,"éĩĳ":903,"ä¸¤":904,"è¾¾":905,"è¶£":906,"æķĻ":907,"å¢ŀ":908,"ç¤¾ä¼ļ":909,"åĨµ":910,"ä¸»è¦ģ":911,"ç»Ĩ":912,"æ¨":913,"æĸĩåĮĸ":914,"è±¡":915,"çĹħ":916,"ä¸»é¢ĺ":917,"åŃĺ":918,"èİ":919,"æ¸ħ":920,"æŃ¤å¤ĸ":921,"èı":922,"æŁĵ":923,"æ¯Ķå¦Ĥ":924,"è½¦":925,"æĪ·":926,"é¥®":927,"æĸ¹æ³ķ":928,"ç½ĳ":929,"æŀģ":930,"æİ¢":931,"æ²¡æľī":932,"åĨĻä¸Ģç¯ĩåħ³äºİ":933,"è°ĥ":934,"åĨħå®¹":935,"è¯ī":936,"åİŁ":937,"ï¼Ī":938,"æľĽ":939,"åįķ":940,"ä¹ī":941,"å·¥ä½ľ":942,"æ»¡":943,"å¤ĩ":944,"åŃ£":945,"è®¸":946,"ï¼Ľ":947,"åħ±":948,"ç¦":949,"æłĩ":950,"èµĦ":951,"è§Ħ":952,"åĽłä¸º":953,"è¿ĳ":954,"ä¸ī":955,"çĶŁæĪĲä¸Ģä¸ª":956,"æ¨¡":957,"çĶµå½±":958,"å±±":959,"å¼ķ":960,"è®¤":961,"å¤©æ°Ķ":962,"çŃīçŃī":963,"è¿Ļç¯ĩ":964,"éĢŁ":965,"åĽłæŃ¤":966,"çİĩ":967,"åĩł":968,"éªĮ":969,"è¯Ńè¨Ģ":970,"åĥ":971,"å¸¦æĿ¥":972,"è®¡ç®Ĺ":973,"ç³»ç»Ł":974,"è§ī":975,"å§ĭ":976,"éĵ":977,"æŀĲ":978,"æł¼":979,"æĪĺ":980,"åĳĬè¯ī":981,"å®Į":982,"åĪĻ":983,"æııè¿°":984,"åĪ°äºĨ":985,"ç¥ŀ":986,"å¤ĦçĲĨ":987,"æĳ":988,"äº«":989,"åħĪ":990,"åŁİå¸Ĥ":991,"çĥŃ":992,"åĥı":993,"è¯·éĹ®":994,"ä¸ºäºĨ":995,"çĽ´":996,"åĲ¦":997,"éĻ©":998,"æĽ´å¤ļ":999,"åĪĨæŀĲ":1000,"èĻĳ":1001,"èĩ´":1002,"æ´»åĬ¨":1003,"è§Ĵ":1004,"AI":1005,"èĲ½":1006,"æµĭ":1007,"æ£":1008,"ç¿":1009,"çīĩ":1010,"æĪĳä»¬çļĦ":1011,"ä¸ºæĤ¨":1012,"ç®¡":1013,"æ¡Ī":1014,"éĴ":1015,"å¤į":1016,"ä»ħ":1017,"åĳ¢":1018,"ä¼ĺ":1019,"æĸĩç«łä¸Ń":1020,"å°½":1021,"èĮ":1022,"ç´¢":1023,"¡æŁĵ":1024,"çº¿":1025,"æŁ¥":1026,"å·²ç»ı":1027,"å°Ŀ":1028,"éĤ£ä¹Ī":1029,"ç»Ń":1030,"å¸®æĪĳ":1031,"ä¿ĿæĮģ":1032,"æĺ¯ä¸Ģç§į":1033,"èĤ²":1034,"¤Ĳ":1035,"ä¸Ķ":1036,"åı¥åŃĲ":1037,"åı²":1038,"é¤Ĳ":1039,"ä¸ŃåĽ½":1040,"åĢĻ":1041,"åľ°çĲĥ":1042,"è¶³":1043,"ä¹ĭä¸Ģ":1044,"ä¸įæĸŃ":1045,"ä½łçļĦ":1046,"æĹħæ¸¸":1047,"åĲ§":1048,"æĸ½":1049,"çĭ¬":1050,"èº«ä½ĵ":1051,"å®īåħ¨":1052,"åĲ¬":1053,"èĩªå·±çļĦ":1054,"åıĺåĮĸ":1055,"çħ":1056,"è§£åĨ³":1057,"åĨį":1058,"åĽ¾":1059,"è®¸å¤ļ":1060,"å¡":1061,"åıĤ":1062,"æľĪ":1063,"æŀĦ":1064,"åĳĬè¯īæĪĳ":1065,"åıį":1066,"èįĲ":1067,"åħ¨çĲĥ":1068,"åĳ½":1069,"çļĦæĥ":1070,"åħħ":1071,"åĳĺ":1072,"æ±¡æŁĵ":1073,"æķ´":1074,"çĻ½":1075,"éĩĩ":1076,"çº¦":1077,"å¤´":1078,"çĬ¶":1079,"èģĶ":1080,"çŃĸ":1081,"è°¢":1082,"åĪĹ":1083,"çļĦå½±åĵį":1084,"ä½Ĩæĺ¯":1085,"èıľ":1086,"æķħäºĭ":1087,"çļĦæĺ¯":1088,"ä»·":1089,"ç»´":1090,"åıĭ":1091,"æİ¨èįĲ":1092,"å¤ıå¤©":1093,"ç»Ħ":1094,"æĸĩæľ¬":1095,"å¥¹":1096,"æ³Ľ":1097,"å¼Ģå§ĭ":1098,"æİĴ":1099,"è¿Ļæł·":1100,"è¾ĥ":1101,"çļĦåıĳå±ķ":1102,"åĬŁ":1103,"ä¾¿":1104,"ä½łåı¯ä»¥":1105,"ä¹ĭéĹ´":1106,"ä»¥ä¸ĭæĺ¯":1107,"éĶ®":1108,"æīį":1109,"è£":1110,"é¡¹":1111,"åĢ¼":1112,"å¾ĭ":1113,"èĥ½åĬĽ":1114,"åİĨåı²":1115,"ä½İ":1116,"å®¢":1117,"å¸Į":1118,"è·¯":1119,"è§ģ":1120,"æľįåĬ¡":1121,"çļĦéĹ®é¢ĺ":1122,"æ²»":1123,"çĮ«":1124,"åı¸":1125,"å°Ŀè¯ķ":1126,"çļĦåºĶçĶ¨":1127,"å¹¿æ³Ľ":1128,"åĲĦç§į":1129,"äºĨè§£":1130,"è¿Ļç§į":1131,"æĶ¿":1132,"è¿ľ":1133,"åĲ¸":1134,"éļıçĿĢ":1135,"ä¸Ģç§į":1136,"ä¹¦":1137,"åħį":1138,"å¯¹äºİ":1139,"è¿ĩç¨ĭ":1140,"å¾Īå¤ļ":1141,"åı¯èĥ½ä¼ļ":1142,"æĪĳåı¯ä»¥":1143,"ç¤º":1144,"ä»»åĬ¡":1145,"åĬ¨çī©":1146,"ç¢":1147,"é¥®é£Ł":1148,"ä¸Ģé¦ĸ":1149,"åĩĨç¡®":1150,"èĳ":1151,"éĶĻ":1152,"ç§ĭ":1153,"èİ·":1154,"æĶ¶":1155,"ç®Ģ":1156,"è¯ĹæŃĮ":1157,"å²":1158,"ç«ĭ":1159,"ä¸½":1160,"éĻħ":1161,"å£°":1162,"åķĨ":1163,"ç§¯":1164,"èĢĥèĻĳ":1165,"æīĵ":1166,"éļ¾":1167,"åĽŀçŃĶ":1168,"çĲĨè§£":1169,"å®ŀçİ°":1170,"è¯»":1171,"çĽ¸åħ³":1172,"è®°":1173,"äºĴ":1174,"è¿ĲåĬ¨":1175,"åħ³éĶ®":1176,"ä¸įä»ħ":1177,"åĲ«":1178,"æŁĲ":1179,"ä»ĭ":1180,"è®²":1181,"èĭ±":1182,"äº§åĵģ":1183,"æħ":1184,"éĹ¨":1185,"ç²¾":1186,"çº¢":1187,"åĶ":1188,"ä»Ĭ":1189,"å¸ĮæľĽ":1190,"çİ°åľ¨":1191,"å¯¼èĩ´":1192,"åı¤":1193,"æĪı":1194,"æĹħè¡Į":1195,"èĩ³":1196,"æ¤":1197,"åİĭ":1198,"æĿ¡":1199,"èĥ½æºĲ":1200,"èŀ":1201,"æĥħåĨµ":1202,"ä»½":1203,"æ¢":1204,"ç¡®ä¿Ŀ":1205,"æľºåĻ¨åŃ¦ä¹ł":1206,"äº§çĶŁ":1207,"èĲ¥":1208,"åħ´":1209,"å¦Ĥæŀľä½ł":1210,"åįĩ":1211,"åħ¬åı¸":1212,"æĽ´å¥½":1213,"æĺ¯åĲ¦":1214,"ç©¶":1215,"æĪĲä¸º":1216,"è¥":1217,"ç»ĥ":1218,"éŁ³ä¹Ĳ":1219,"Ġ2":1220,"Ġåľ¨":1221,"è¥¿":1222,"æĪĳæĥ³":1223,"çłĶ":1224,"åħ»":1225,"çļĦäºº":1226,"æķĻèĤ²":1227,"æĲ":1228,"éĻĲ":1229,"æĸ°çļĦ":1230,"æļĸ":1231,"å¯»":1232,"ç»¿":1233,"è¡Įä¸º":1234,"ç»į":1235,"çļĦæ°":1236,"ä»ĭç»į":1237,"å¤ªéĺ³":1238,"åı¶":1239,"æĶ¯":1240,"èŀį":1241,"æĺ¯ä»Ģä¹Ī":1242,"ä¸ĵ":1243,"ªæĸ½":1244,"è½¬":1245,"å¥³":1246,"éĿĻ":1247,"èĽ":1248,"æĿĲ":1249,"åħĭ":1250,"åĬ¿":1251,"çļĦæĦ":1252,"æĿ¾":1253,"çľŁ":1254,"ç§ĳåŃ¦":1255,"è®¡ç®Ĺæľº":1256,"åĪĴ":1257,"å¨":1258,"å¿µ":1259,"åıĳçİ°":1260,"è¯Ĭ":1261,"è¾¹":1262,"æĤ¨åı¯ä»¥":1263,"åĪĽæĦı":1264,"å½ĵçĦ¶åı¯ä»¥":1265,"éĩĬ":1266,"æľīä»Ģä¹Ī":1267,"ä¹Łåı¯ä»¥":1268,"å¦ĤæŀľæĤ¨":1269,"è®¾è®¡":1270,"ä½ľä¸º":1271,"äººå·¥æĻºèĥ½æĬĢæľ¯":1272,"çļĦæĬ":1273,"å¤ľ":1274,"çļĦæĥħ":1275,"åĽ´":1276,"åħĥ":1277,"ĳæĪĺ":1278,"äº¤éĢļ":1279,"ç§°":1280,"æľīåħ³":1281,"æ³¨æĦı":1282,"éģ¿":1283,"èĩªåĬ¨":1284,"åĽŃ":1285,"å¤±":1286,"è®¨":1287,"åĳ¨":1288,"åºı":1289,"è¯ĨåĪ«":1290,"æĪĳä»¬åı¯ä»¥":1291,"æĬ¥":1292,"èµĦæºĲ":1293,"éħį":1294,"èīº":1295,"åħ·æľī":1296,"çłģ":1297,"æŀĹ":1298,"Ġ3":1299,"åı¦":1300,"ä¸įåĲĮçļĦ":1301,"çħ§":1302,"åĮ»çĶŁ":1303,"å¿ħ":1304,"æĹłæ³ķ":1305,"ç¼ĸ":1306,"å¯Į":1307,"é£ŀ":1308,"ç¬¬":1309,"ä½ľçĶ¨":1310,"å¾®":1311,"åį³":1312,"æİ§":1313,"ä¸Ģèµ·":1314,"ç½®":1315,"åĪ©çĶ¨":1316,"æ¶Ī":1317,"æİ¢ç´¢":1318,"æľīè¶£":1319,"éĽ¨":1320,"èĤī":1321,"çĳ":1322,"çī¹å®ļ":1323,"è´¹":1324,"çļĦä¿¡æģ¯":1325,"éĢĤåĲĪ":1326,"æĺĵ":1327,"æĺ¥":1328,"è¿Ļç¯ĩæĸĩç«ł":1329,"æĽ´å¥½åľ°":1330,"åŃĺåľ¨":1331,"çĶ»":1332,"å°ıè¯´":1333,"çļĦåľ°":1334,"Ġ1":1335,"åı·":1336,"éĺ²":1337,"æĻ®":1338,"è¯ģ":1339,"è´¨éĩı":1340,"é²":1341,"æīįèĥ½":1342,"ç¦»":1343,"çŁ¥éģĵ":1344,"é¦Ļ":1345,"é»ĳ":1346,"è®¤ä¸º":1347,"éĥ½æĺ¯":1348,"çļĦéĩįè¦ģ":1349,"ä½łå¥½":1350,"åĪĨç±»":1351,"è¯ĬæĸŃ":1352,"å¯¹è¯Ŀ":1353,"ä»»ä½ķ":1354,"ĥåľ":1355,"æłĳ":1356,"æĴ":1357,"åŀĥåľ":1358,"åŀĥåľ¾":1359,"äºĶ":1360,"éĺ³åħī":1361,"éľĢæ±Ĥ":1362,"è¯Ħ":1363,"éĻį":1364,"00":1365,"åħ¶ä¸Ń":1366,"çª":1367,"åı¯ä»¥å¸®åĬ©":1368,"åĮĹ":1369,"æĮģç»Ń":1370,"äººçļĦ":1371,"å®³":1372,"ç»Ī":1373,"çĶ¨äºİ":1374,"è´Ń":1375,"åħ³æ³¨":1376,"èģĬ":1377,"ä¹Łæĺ¯":1378,"èħ":1379,"çŁŃ":1380,"èįī":1381,"æĿ¥è¶Ĭ":1382,"éĩĩåıĸ":1383,"è¶ĬæĿ¥è¶Ĭ":1384,"åħ³ç³»":1385,"åĸĦ":1386,"å¢ŀåĬł":1387,"é¦ĸåħĪ":1388,"æĤ¨çļĦ":1389,"¾çĹħ":1390,"èĢģ":1391,"çĶŁåĳ½":1392,"ç®¡çĲĨ":1393,"é»Ħ":1394,"åŃ©":1395,"è¡¨è¾¾":1396,"çļĦæİ":1397,"åıĹåĪ°":1398,"å¯Ĩ":1399,"éģ¿åħį":1400,"å¾Ģ":1401,"ä»İèĢĮ":1402,"éĥ¨åĪĨ":1403,"çĦ¶åĲİ":1404,"ãĢĤ\"":1405,"æľĢåĲİ":1406,"ä½ĵéªĮ":1407,"æĸ¯":1408,"èĽĭ":1409,"æ¸¸æĪı":1410,"å·§":1411,"åĪ»":1412,"æ°ĳ":1413,"æµª":1414,"æľĢè¿ĳ":1415,"çģ«":1416,"åľ¨åĮ»çĸĹ":1417,"ç¿»":1418,"å¥ĩ":1419,"æİªæĸ½":1420,"çĶŁæĢģ":1421,"äºĮ":1422,"é£Łçī©":1423,"æ¼Ķ":1424,"çļĦç¾İ":1425,"çİ©":1426,"åĲĥ":1427,"çļĦæĢ":1428,"çı":1429,"ä¼¼":1430,"æ¿":1431,"ç±»åŀĭ":1432,"åĭ":1433,"åĪĽéĢł":1434,"æľĭ":1435,"çĶ¨æĪ·":1436,"¦Ĥ":1437,"çļĦæĻ":1438,"éģĩ":1439,"çģµ":1440,"éĩįè¦ģçļĦ":1441,"æ°ĶåĢĻ":1442,"è¿ĺæĺ¯":1443,"æĢİ":1444,"è¿ĺæľī":1445,"è¿ĺåı¯ä»¥":1446,"è¯¦":1447,"å¤§çļĦ":1448,"çĶŁçī©":1449,"æĥ³è¦ģ":1450,"è¯¢":1451,"äºĳ":1452,"æ¤į":1453,"ä¸¤ä¸ª":1454,"çĸ¾çĹħ":1455,"æ¿Ģ":1456,"çłĶç©¶":1457,"æĸĩç«łä¸ŃæıĲåıĸ":1458,"ä¸¥":1459,"éĺŁ":1460,"æľĭåıĭ":1461,"èµ°":1462,"æ¯ıä¸ªäºº":1463,"æµİ":1464,"çļĦå¤©æ°Ķ":1465,"åŃ£èĬĤ":1466,"æ¸Ĳ":1467,"è£ħ":1468,"ä¸Ģæ®µ":1469,"æ»©":1470,"æķĪçİĩ":1471,"ç¾":1472,"ç»ıæµİ":1473,"é¼":1474,"ä½łèĥ½":1475,"æĪĳçļĦ":1476,"æ²»çĸĹ":1477,"æĮĳæĪĺ":1478,"é©¬":1479,"åįĹ":1480,"è§£éĩĬ":1481,"è¯¦ç»Ĩ":1482,"äº¬":1483,"æĿ¥è¯´":1484,"åı°":1485,"èµĽ":1486,"å¾·":1487,"å¡ĳ":1488,"æĻļ":1489,"çļĦæµ":1490,"èĳĹ":1491,"éĽĨ":1492,"çļĦæķħäºĭ":1493,"å¼ł":1494,"æĢ§åĴĮ":1495,"åĪĽæĸ°":1496,"åħħæ»¡":1497,"çİ°ä»£":1498,"å¸ĥ":1499,"å®ĮæĪĲ":1500,"é¸Ł":1501,"è¯ĳ":1502,"æ¬¾":1503,"çĽĬ":1504,"è¡Įä¸ļ":1505,"æĥħæĦŁ":1506,"ä¸įæĺ¯":1507,"åıĺå¾Ĺ":1508,"å¹¶ä¸Ķ":1509,"æ¹":1510,"èį¯":1511,"åĪ¶ä½ľ":1512,"è®Ń":1513,"æĿĤ":1514,"ä¼łç»Ł":1515,"åĽĽ":1516,"è¾ĵ":1517,"æ´ĭ":1518,"è¯¯":1519,"åĲįåŃĹ":1520,"åĦ":1521,"çļĦæ¸":1522,"æĦŁåĪ°":1523,"è¿½":1524,"æĶ¹åıĺ":1525,"äº«åıĹ":1526,"æĪĳä¼ļ":1527,"èµ·æĿ¥":1528,"çĽ®æłĩ":1529,"çĨ":1530,"åħ±åĲĮ":1531,"ç§¯æŀģ":1532,"å°Ķ":1533,"è¡¡":1534,"è®©æĪĳä»¬":1535,"ä¹°":1536,"èľ":1537,"çļĦä¸Ģ":1538,"èīºæľ¯":1539,"èĦĳ":1540,"ä¸´":1541,"æİ§åĪ¶":1542,"å±Ĥ":1543,"åĩłä¸ª":1544,"æŃ£åľ¨":1545,"æĽ´å¤ļçļĦ":1546,"æ¼«":1547,"æī¾åĪ°":1548,"ç«Ļ":1549,"æīĢæľī":1550,"ç»ľ":1551,"åĽłç´ł":1552,"ä¼Ĺ":1553,"å¾ģ":1554,"åħ·ä½ĵçļĦ":1555,"æľīæķĪ":1556,"ç¿»è¯ĳ":1557,"å¸Ī":1558,"æ²Ļ":1559,"åĨ°":1560,"ä¼ģ":1561,"éĻ¤":1562,"é±":1563,"åİĭåĬĽ":1564,"çļĦæĬĢ":1565,"çĪ±æĥħ":1566,"è¡ĮåĬ¨":1567,"é±¼":1568,"ä¿ĥ":1569,"åĦ¿":1570,"è´£":1571,"åĴĸ":1572,"æĬĬ":1573,"ä¸°":1574,"å¾ħ":1575,"è®©æĪĳ":1576,"Ġ4":1577,"é¢ľ":1578,"æĪĳéľĢè¦ģ":1579,"åĵªäºĽ":1580,"å±ħ":1581,"ä¹ĭéĹ´çļĦ":1582,"ç§ĺ":1583,"åºŃ":1584,"é¾":1585,"äºĨä¸Ģ":1586,"æĭ¥":1587,"èĵ":1588,"å½©":1589,"æĭŁ":1590,"åºľ":1591,"æĵ":1592,"éĢĲ":1593,"åĽ¢":1594,"çīĮ":1595,"æķ£":1596,"çļĦæķ°":1597,"è¶ħ":1598,"è¯·æıĲä¾Ľ":1599,"åķ¡":1600,"æĪĳä»¬éľĢè¦ģ":1601,"åĪĩ":1602,"ä¿®":1603,"èĥĮ":1604,"ä¸ĬçļĦ":1605,"ç®Ĺæ³ķ":1606,"å±ŀ":1607,"è´Ł":1608,"åıĳçĶŁ":1609,"é¢Ħæµĭ":1610,"èĩªçĦ¶è¯Ńè¨Ģ":1611,"è¦ģæ±Ĥ":1612,"æĪĳå°Ĩ":1613,"å¸Ĥåľº":1614,"ç¼ĵ":1615,"åĴĸåķ¡":1616,"\"ï¼Į":1617,"åĮ»åŃ¦":1618,"æĺ¾":1619,"ç¬ĳ":1620,"å®¤":1621,"çĶŁäº§":1622,"éŃ":1623,"æ½":1624,"éĩĳèŀį":1625,"ä¸įèĥ½":1626,"éħĴ":1627,"çİ¯å¢ĥä¿ĿæĬ¤":1628,"ç¾İä¸½":1629,"ç©¿":1630,"å¡ĳæĸĻ":1631,"åįİ":1632,"æĿĥ":1633,"çļĦæł":1634,"åĬŁèĥ½":1635,"çĦ¶èĢĮ":1636,"å¼Ĥ":1637,"èī¯":1638,"ä»£çłģ":1639,"æĭī":1640,"\"ãĢĤ":1641,"åįģ":1642,"ï¼ļ\"":1643,"åĳ¼":1644,"çĽ´æİ¥":1645,"åŁºäºİ":1646,"ç½ĳç»ľ":1647,"èģĮ":1648,"å·´":1649,"ä¼ģä¸ļ":1650,"å¯»æī¾":1651,"ä¸ľ":1652,"é£İéĻ©":1653,"éĹ»":1654,"æĪ¿":1655,"âĢ":1656,"è¿Ļæĺ¯":1657,"æ°ĶåĢĻåıĺåĮĸ":1658,"æ²¹":1659,"é²ľ":1660,"æĸ¹æ¡Ī":1661,"çĶŁæĪĲä¸Ģé¦ĸ":1662,"æĽ²":1663,"æĶ¿åºľ":1664,"éĨ":1665,"åħ´è¶£":1666,"åī§":1667,"ç³ĸ":1668,"äºļ":1669,"éĩİ":1670,"çŁ³":1671,"æĳĦ":1672,"å®¶åºŃ":1673,"èī²çļĦ":1674,"éļĲ":1675,"å¤įæĿĤ":1676,"å°Ĩä¼ļ":1677,"æĺ¯åľ¨":1678,"å£«":1679,"æľīä¸Ģä¸ª":1680,"åľºæĻ¯":1681,"å¹»":1682,"æŃ£ç¡®":1683,"æĢİä¹Ī":1684,"ç±³":1685,"æľīä¸Ģ":1686,"çī©è´¨":1687,"ç»Ļåĩº":1688,"çķ¥":1689,"é©¶":1690,"åıĤä¸İ":1691,"äº®":1692,"ä¼½":1693,"åı¯æĮģç»Ń":1694,"éĶĢ":1695,"è®©äºº":1696,"å®ŀéĻħ":1697,"åĿĹ":1698,"éĺħ":1699,"è®Ńç»ĥ":1700,"è®¾å¤ĩ":1701,"å¤§éĩı":1702,"çĭ¬çī¹":1703,"æ£Ģ":1704,"åĬª":1705,"å¹²":1706,"åĬ±":1707,"çĽĳ":1708,"é©¾":1709,"è¿İ":1710,"ä¸ĩ":1711,"èĵĿ":1712,"æĹ©":1713,"èİ·å¾Ĺ":1714,"åģĩ":1715,"çļĦçĶŁæ´»":1716,"åĬªåĬĽ":1717,"ä¸°å¯Į":1718,"ç»ĵæŀĦ":1719,"çŃīæĸ¹éĿ¢":1720,"çŁ¥è¯Ĩ":1721,"æ·±åº¦":1722,"ľä¼½":1723,"ç¦ı":1724,"ä¿ĥè¿Ľ":1725,"æĦıè¯Ĩ":1726,"è®¡åĪĴ":1727,"å¸®åĬ©æĤ¨":1728,"æľĢç»Ī":1729,"çĥ¤":1730,"è¯Ŀé¢ĺ":1731,"èĮĥ":1732,"éĥ½æľī":1733,"åºĹ":1734,"ä½ľåĵģ":1735,"è¿ĻéĩĮ":1736,"é¸¡":1737,"ç®Ģåįķ":1738,"ä»Ĭå¤©":1739,"èĩªçĦ¶è¯Ńè¨Ģå¤ĦçĲĨ":1740,"å®ĩ":1741,"ä¸¾":1742,"æ¢¦":1743,"å½ĵåľ°":1744,"ä¸Ģæ¬¡":1745,"æ¯Ķè¾ĥ":1746,"æĶ¾æĿ¾":1747,"ä¸ĵä¸ļ":1748,"20":1749,"åħ¸":1750,"æĹ¥å¸¸":1751,"çļĦè¯ĹæŃĮ":1752,"æ¦Ĥ":1753,"çªģ":1754,"å°Ħ":1755,"è§Ĵèī²":1756,"ä»¤":1757,"åĩºçİ°":1758,"è¶ĭ":1759,"æ¨¡åŀĭ":1760,"çļĦçŁ":1761,"çĸ«":1762,"æĶ¯æĮģ":1763,"äº¤æµģ":1764,"ä¸ºä»Ģä¹Ī":1765,"å¿«éĢŁ":1766,"æĢĿèĢĥ":1767,"çīĽ":1768,"åĩĨå¤ĩ":1769,"å®ļçļĦ":1770,"ä»·åĢ¼":1771,"å³":1772,"ç»ĩ":1773,"åľŁ":1774,"çļĦæĸ¹æ³ķ":1775,"èĪŀ":1776,"åİħ":1777,"åĪ¤":1778,"å¥¶":1779,"å¿ĥçĲĨ":1780,"æľīå¾Īå¤ļ":1781,"å·¨":1782,"å®Ŀ":1783,"å½¢æĪĲ":1784,"æĺ¯æĮĩ":1785,"åª":1786,"åı¥è¯Ŀ":1787,"åĮĹäº¬":1788,"è¿ĽæŃ¥":1789,"çļĦä¸»é¢ĺ":1790,"èĶ":1791,"åĬłåħ¥":1792,"æ°§":1793,"æį¢":1794,"çĳľä¼½":1795,"ç§ĭå¤©":1796,"æ¤įçī©":1797,"è¶ĭåĬ¿":1798,"è¿ĩç¨ĭä¸Ń":1799,"çļĦæŃ":1800,"è¯·åĳĬè¯īæĪĳ":1801,"ç©ºæ°Ķ":1802,"æľºåĻ¨äºº":1803,"çĩ":1804,"åı¦å¤ĸ":1805,"äººå·¥æĻºèĥ½çļĦ":1806,"è®¨è®º":1807,"Â·":1808,"ä¸ĭéĿ¢":1809,"å·¥åħ·":1810,"å¤ıåŃ£":1811,"æĤ¨éľĢè¦ģ":1812,"çł´":1813,"é£Łåĵģ":1814,"åĬ©äºİ":1815,"é¢ľèī²":1816,"åľ°åĮº":1817,"ç§ģ":1818,"åı«":1819,"»åĬ¨":1820,"é©¾é©¶":1821,"ç¨ĭåºı":1822,"åĿļ":1823,"æĥ¯":1824,"åĽ¾åĥı":1825,"åĪĨäº«":1826,"ä¸īä¸ª":1827,"å¾ĹåĪ°":1828,"è¿ŀ":1829,"çĶ±äºİ":1830,"åıĪ":1831,"æ´ģ":1832,"ç¬¦":1833,"è½¯":1834,"æĹı":1835,"ç¢³":1836,"æľ¨":1837,"ç¤¾äº¤":1838,"æ¶ī":1839,"çº§":1840,"çļĦæ²":1841,"å¨ģ":1842,"çļĦå»ºè®®":1843,"æĪĲåĬŁ":1844,"çļĦä¸»è¦ģ":1845,"åĵģçīĮ":1846,"ç¾İé£Ł":1847,"éĢłæĪĲ":1848,"ä¹łæĥ¯":1849,"éĺħè¯»":1850,"æĸ¹åĲĳ":1851,"æ±½":1852,"çľĭåĪ°":1853,"çŃīé¢ĨåŁŁ":1854,"æĶ¹åĸĦ":1855,"ç¡®å®ļ":1856,"è§ĤçĤ¹":1857,"åĵªä¸ª":1858,"ä½¿å¾Ĺ":1859,"åĨ³çŃĸ":1860,"å®Ļ":1861,"çŃĶæ¡Ī":1862,"çī¹åĪ«":1863,"ä½ı":1864,"äºĭä»¶":1865,"ç»ĵæŀľ":1866,"ä¼´":1867,"çļĦæĦı":1868,"éĿĴ":1869,"æ³ķå¾ĭ":1870,"åĪĽä½ľ":1871,"å®ĩå®Ļ":1872,"æĿĲæĸĻ":1873,"åĬłå¼º":1874,"æĭ¥æľī":1875,"çİĭ":1876,"çĵ":1877,"èĪĴ":1878,"è¡¨çİ°":1879,"æĢ§çļĦ":1880,"è¯ŃéŁ³":1881,"æĤ£":1882,"è¡£":1883,"æĹłè®º":1884,"å¼Ģåıĳ":1885,"äºī":1886,"æľīåĬ©äºİ":1887,"çļĦçĶµå½±":1888,"åı¯ä»¥éĢļè¿ĩ":1889,"çĶ·":1890,"åł":1891,"åĮħåĲ«":1892,"è´£ä»»":1893,"ä¸įéĶĻ":1894,"éĶĻè¯¯":1895,"é¤Ĳåİħ":1896,"åĽ°":1897,"çļĦå°ı":1898,"è¯·ç»ĻæĪĳ":1899,"ĠæĢ»":1900,"æīĢä»¥":1901,"æ³¢":1902,"ä¸įä¼ļ":1903,"æ¸©åº¦":1904,"æ²³":1905,"åĬĽéĩı":1906,"æĪĳä»¬åºĶè¯¥":1907,"çļĦæĮ":1908,"åĪ¶å®ļ":1909,"åĿĩ":1910,"äºĨä¸Ģä¸ª":1911,"éĵ¾":1912,"çļĦæĹ¶":1913,"åĩī":1914,"åŃ¦çĶŁ":1915,"ä»ĸçļĦ":1916,"å¹³è¡¡":1917,"ç¼º":1918,"è´Ńä¹°":1919,"æ¶īåıĬ":1920,"çļĦæĶ":1921,"æ´²":1922,"é¦Ĩ":1923,"æĬķ":1924,"èĥĮæĻ¯":1925,"ä¾Ŀ":1926,"ç¾¤":1927,"åģļåĩº":1928,"ä¸¥éĩį":1929,"çļĦæĬĢæľ¯":1930,"æŁĲäºĽ":1931,"çľ¼":1932,"äº²":1933,"èĻļ":1934,"çĶµåŃĲ":1935,"å¤ļä¸ª":1936,"å¢ŀå¼º":1937,"å¸¦æĿ¥äºĨ":1938,"èĿ":1939,"åĨľ":1940,"åĲ¸å¼ķ":1941,"çİ°å®ŀ":1942,"çļĦç¤":1943,"åĲĮæĹ¶ä¹Ł":1944,"ä½įç½®":1945,"åħ¶æ¬¡":1946,"çļĦæĦŁ":1947,"å¤ļç§į":1948,"åĿı":1949,"åİŁåĽł":1950,"èĴ":1951,"é£İæł¼":1952,"äºĭæĥħ":1953,"æŃ¢":1954,"éĢŁåº¦":1955,"ç»ıåİĨ":1956,"çļĦæī":1957,"çĽ®åīį":1958,"èĳĹåĲį":1959,"æľºä¼ļ":1960,"æ·±åº¦åŃ¦ä¹ł":1961,"åį¡":1962,"æľªæĿ¥çļĦ":1963,"çľł":1964,"åħĥç´ł":1965,"èģĶç½ĳ":1966,"ä¼¤":1967,"æĸ°éĹ»":1968,"è¯·ä½ł":1969,"å»ºç«ĭ":1970,"æħ¢":1971,"èĶ¬":1972,"æĸĩåŃ¦":1973,"çļ®":1974,"æıĲä¾Ľä¸ĢäºĽ":1975,"éĢĲæ¸Ĳ":1976,"ä¸ĢæŃ¥":1977,"å®ĥçļĦ":1978,"é¡»":1979,"çķĻ":1980,"Ġ5":1981,"çļĦæ´":1982,"ä»£è¡¨":1983,"ä¸įåı¯":1984,"é«ĺæķĪ":1985,"ç¼ĸç¨ĭ":1986,"¹ģ":1987,"æĿ¯":1988,"æİĴæĶ¾":1989,"çļĦæı":1990,"ä»İæĸĩç«łä¸ŃæıĲåıĸ":1991,"æ¬¢è¿İ":1992,"ç»Ŀ":1993,"çĮ®":1994,"èİ·åıĸ":1995,"éĻįä½İ":1996,"èĻ½":1997,"éĿ¢ä¸´":1998,"æ±½è½¦":1999,"è°¢è°¢":2000,"é¢ĳ":2001,"é¼ĵ":2002,"èĲ¥åħ»":2003,"åĳ¼åĲ¸":2004,"è¿Ļä¸Ģ":2005,"çļĦç¬":2006,"çī¹çĤ¹":2007,"çĤ¼":2008,"åįı":2009,"è·ĳ":2010,"å½ķ":2011,"åĨ·":2012,"åŁºæľ¬":2013,"å°Ĭ":2014,"ç´§":2015,"è®²è¿°":2016,"ç»ª":2017,"çĹĩ":2018,"æ¯ıä¸ª":2019,"èĩªæĪĳ":2020,"èĩªçĶ±":2021,"ä¸Ģä»½":2022,"çļĦæ°´":2023,"çļĦçĥ":2024,"Ġ-":2025,"èģĶç³»":2026,"èĶ¬èıľ":2027,"ä½Ľ":2028,"åŁºç¡":2029,"åĬĽåĴĮ":2030,"äººç±»çļĦ":2031,"åŁºç¡Ģ":2032,"çļĦåħ³éĶ®":2033,"è§īå¾Ĺ":2034,"åĭĩ":2035,"åį´":2036,"èĪ¬":2037,"èĹ":2038,"éĢģ":2039,"ç¥ŀç§ĺ":2040,"å¹¸":2041,"ä¿ĿæĬ¤çİ¯å¢ĥ":2042,"å°±æĺ¯":2043,"çļĦçģ":2044,"çĤİ":2045,"èĻ½çĦ¶":2046,"å¼ºè°ĥ":2047,"å¸¸è§ģ":2048,"åľ¨è¿Ļä¸ª":2049,"æľīçĿĢ":2050,"åĨ³å®ļ":2051,"è¾ĳ":2052,"çļĦæµ·":2053,"å¤ıæĹ¥":2054,"æµ·æ´ĭ":2055,"å¿Ĩ":2056,"éĽª":2057,"å¿ħé¡»":2058,"ä»¿":2059,"è¡Ģ":2060,"æķ´ä¸ª":2061,"ç»§":2062,"æ²ī":2063,"é¾Ļ":2064,"ä¸Ģç¯ĩåħ³äºİ":2065,"çĶŁæ´»ä¸Ń":2066,"ç»Ħç»ĩ":2067,"èĥľ":2068,"æī§":2069,"æĬĢæľ¯çļĦ":2070,"æ³³":2071,"å²Ľ":2072,"éľ²":2073,"æŁĶ":2074,"åıĺæļĸ":2075,"é¢ĦæĬ¥":2076,"åĪĿ":2077,"çŃĳ":2078,"æİ¨åĬ¨":2079,"å½¢å¼ı":2080,"æĮī":2081,"å¤ªç©º":2082,"åŃ©åŃĲ":2083,"ä¸įè¿ĩ":2084,"åį°":2085,"ç¤¼":2086,"çļĦçĪ":2087,"åıįåºĶ":2088,"éĢĶ":2089,"ä¸Ģåıª":2090,"çī¹å¾ģ":2091,"æĿ¡ä»¶":2092,"çĸĳ":2093,"äººå·¥æĻºèĥ½åľ¨åĮ»çĸĹ":2094,"éĵ¶":2095,"åĮĸçļĦ":2096,"éļĲç§ģ":2097,"åĬŀ":2098,"ç»¿èī²":2099,"æĺİå¤©":2100,"æľīæīĢ":2101,"æĪĲä¸ºäºĨ":2102,"åŃ¤":2103,"çļĦçľ":2104,"æķ°åŃĹ":2105,"ç¹ģ":2106,"æ¯ĶèµĽ":2107,"åºŁ":2108,"åĤ":2109,"æĦŁåıĹ":2110,"å¹¶ä¸į":2111,"è¡ĮæĺŁ":2112,"éº":2113,"åį«":2114,"å»ºçŃĳ":2115,"ä»ĸä»¬çļĦ":2116,"æĳĺ":2117,"åį±":2118,"æĦ¿":2119,"çİ¯å¢ĥæ±¡æŁĵ":2120,"å¹³åı°":2121,"æĵį":2122,"åªĴ":2123,"åģ¥åº·é¥®é£Ł":2124,"éĢı":2125,"æİ¢è®¨":2126,"ä¸ĭæĿ¥":2127,"å®ĺ":2128,"èŃ":2129,"èģļ":2130,"åĪ¤æĸŃ":2131,"®æŀĹ":2132,"å®ł":2133,"æıĲåįĩ":2134,"æĮ¥":2135,"ç¥¨":2136,"èĢħçļĦ":2137,"ä¸ºæĪĳ":2138,"å½Ĵ":2139,"èĪª":2140,"åĩ»":2141,"ç»ĥä¹ł":2142,"åº§":2143,"æ¸©æļĸ":2144,"æĪĳä¸ºæĤ¨":2145,"åĽ½å®¶":2146,"åįķè¯į":2147,"èį¯çī©":2148,"çļĦåľ°æĸ¹":2149,"çºª":2150,"éĻ¢":2151,"åĲįç§°":2152,"Ġ\"":2153,"å·®":2154,"ç¾İå¥½çļĦ":2155,"æĿİ":2156,"åģ¥èº«":2157,"ç§ĳå¹»":2158,"è°ĥæķ´":2159,"çģ¾":2160,"å¤ļæł·":2161,"å¯Ł":2162,"éĺ¿":2163,"æĥħåĨµä¸ĭ":2164,"ç²ī":2165,"çĦ¦":2166,"çĿ¡":2167,"éĴĪ":2168,"é¼ĵåĬ±":2169,"æļ´":2170,"çļĦæ°Ķ":2171,"æ°´å¹³":2172,"è¢ĭ":2173,"çļĦæ¯":2174,"éĴŁ":2175,"ç½Ĺ":2176,"å¤©ç©º":2177,"åºķ":2178,"çİ¯ä¿ĿçļĦæĸĩç«ł":2179,"æĮĩçļĦæĺ¯":2180,"éĶ»":2181,"è§Ĩè§ī":2182,"çĽĸ":2183,"æ´ŀ":2184,"åªĴä½ĵ":2185,"ä¼¦":2186,"éĶ»çĤ¼":2187,"åºĶçĶ¨äºİ":2188,"å®łçī©":2189,"æ°¸":2190,"åģı":2191,"æ¨¡å¼ı":2192,"éģĵå¾·":2193,"ç«¯":2194,"æ·»":2195,"çĭ¬çī¹çļĦ":2196,"ä¸ĬæľĢ":2197,"æľīè¶£çļĦ":2198,"..":2199,"æ¯į":2200,"ç»§ç»Ń":2201,"å©":2202,"ä»İè¿Ļç¯ĩ":2203,"æ·±åħ¥":2204,"çļĦæ³":2205,"æĦıä¹ī":2206,"å¸®æĪĳæĥ³":2207,"èĭ±æĸĩ":2208,"èĪĴéĢĤ":2209,"çļĦçł":2210,"æĬĢå·§":2211,"éĢĤåºĶ":2212,"å³°":2213,"èŃ¦":2214,"ä¼ĺåĮĸ":2215,"çİ°è±¡":2216,"æĪ·å¤ĸ":2217,"å¤ļå°ĳ":2218,"æĥĬ":2219,"å±ŀäºİ":2220,"æ¯ıä¸ªäººéĥ½":2221,"åĨĻä½ľ":2222,"è·³":2223,"æĶ¿çŃĸ":2224,"å¤§èĩªçĦ¶":2225,"çĬ¬":2226,"åħ¨çĲĥåıĺæļĸ":2227,"åıĤåĬł":2228,"æ¸¸æ³³":2229,"è°Ī":2230,"å®¶å±ħ":2231,"åħ¬åĽŃ":2232,"ä¸Ģå®ļ":2233,"èĭ±è¯Ń":2234,"èµı":2235,"ç»ĦæĪĲ":2236,"çļĦåŃ£èĬĤ":2237,"ç¾İåĽ½":2238,"æıĲåĪ°":2239,"èĦĤ":2240,"æ»¡è¶³":2241,"ä¸ªæĢ§":2242,"ç³»åĪĹ":2243,"ç§ĳæĻ®":2244,"å¿«ä¹Ĳ":2245,"èĹı":2246,"æ¥":2247,"ç¾İå¥½":2248,"çļĦæķ°æį®":2249,"èģĮä¸ļ":2250,"ä¸Ńæĸĩ":2251,"ä»¥ä¾¿":2252,"ä¸Ńå¿ĥ":2253,"æĭħ":2254,"ä½³":2255,"æıĲåĩº":2256,"èĮ¶":2257,"åĢ¼å¾Ĺ":2258,"åĲĪçĲĨ":2259,"å·¥ä¸ļ":2260,"æĺł":2261,"åĮĸåŃ¦":2262,"æĢ»ç»ĵ":2263,"èĮĥåĽ´":2264,"è§£çŃĶ":2265,"æĴŃ":2266,"åĲĪä½ľ":2267,"å®ĥä»¬çļĦ":2268,"æķ°åŃ¦":2269,"éĵģ":2270,"æĪĳæīįèĥ½":2271,"èĢĮä¸Ķ":2272,"æĦıåĳ³":2273,"æ°´æŀľ":2274,"çĶŁåŃĺ":2275,"åľ°æĸ¹":2276,"ä»·æł¼":2277,"å¿Ĺ":2278,"è´¢":2279,"åıªæľī":2280,"çī©çĲĨ":2281,"ä¸ĢäºĽåħ³äºİ":2282,"è´¡":2283,"ä¹İ":2284,"çļĦå¥½":2285,"åĽ¢éĺŁ":2286,"ä¿Ŀåģ¥":2287,"æµĵ":2288,"ä»į":2289,"ä¸ŃæľĢ":2290,"çĬ¶æĢģ":2291,"âĢĶ":2292,"çļĦæĥħåĨµ":2293,"å°¼":2294,"ãĢĭãĢģ":2295,"è´¡çĮ®":2296,"åı¯ä»¥åľ¨":2297,"åĵĪ":2298,"æ½ľ":2299,"éĿ©":2300,"é«ĺçļĦ":2301,"æĽ¿":2302,"æĦī":2303,"åĨĴ":2304,"æľīäºĽ":2305,"ç½ĳç«Ļ":2306,"æĦıåĳ³çĿĢ":2307,"å¾ª":2308,"ç¼ĵè§£":2309,"ç»ıéªĮ":2310,"è¶³å¤Ł":2311,"è±Ĩ":2312,"é¡¹çĽ®":2313,"çļĦæĸ¹å¼ı":2314,"å®¢æĪ·":2315,"è¿½æ±Ĥ":2316,"åı¯æĮģç»Ńåıĳå±ķ":2317,"åıĳæĮ¥":2318,"10":2319,"è¿Ľä¸ĢæŃ¥":2320,"æĲľ":2321,"éģĹ":2322,"æıĲä¾ĽæĽ´":2323,"çĽ¸åºĶ":2324,"çļĦéĩįè¦ģæĢ§":2325,"çŃĸçķ¥":2326,"è·Ł":2327,"ä»¤äºº":2328,"ä¸ºä½ł":2329,"äººå·¥æĻºèĥ½åľ¨":2330,"å¹¸ç¦ı":2331,"ä¹Łä¼ļ":2332,"å¹´è½»":2333,"æħ§":2334,"çļĦæĥħæĦŁ":2335,"çļĦåı¥åŃĲ":2336,"å¿ĺ":2337,"æĿ¿":2338,"ä¸įè¦ģ":2339,"çģ¯":2340,"å¯¹çİ¯å¢ĥ":2341,"ä¸ĢçĽ´":2342,"å¾Ħ":2343,"åĲĦä¸ª":2344,"èĨ":2345,"æ°Ķæ¸©":2346,"æĵįä½ľ":2347,"çĶŁæĢģç³»ç»Ł":2348,"éĩıåŃĲ":2349,"éħ¸":2350,"çĻ¾":2351,"åĲ¹":2352,"çĶ¨æĿ¥":2353,"åįĥ":2354,"çĥĪ":2355,"èĥ½éĩı":2356,"æĬĢèĥ½":2357,"æī¿":2358,"æ£ĢæŁ¥":2359,"å¼ķèµ·":2360,"åĨĽ":2361,"è¾ĵåħ¥":2362,"è¿·":2363,"æ¯Ľ":2364,"ãĢĭãĢģãĢĬ":2365,"éŃĶ":2366,"çĶŁæĪĲä¸Ģä¸ªåħ³äºİ":2367,"çļĦç¤¾":2368,"åĶ®":2369,"ç§ĳæĻ®æĸĩç«ł":2370,"æĭĤ":2371,"çļĦæ®":2372,"å°Ĭéĩį":2373,"ä¼ĳ":2374,"çī©åĵģ":2375,"çĩĥ":2376,"æµ·æ»©":2377,"æ¯Ĵ":2378,"å·¦":2379,"éļľ":2380,"çĶľ":2381,"æ¯ıå¤©":2382,"æīĵå¼Ģ":2383,"è¿Ļä¸ªéĹ®é¢ĺ":2384,"æĦŁè§ī":2385,"èĩªåĬ¨é©¾é©¶":2386,"åı³":2387,"çĭĹçĭĹ":2388,"çļĦæ´»åĬ¨":2389,"è¿Ļæĺ¯ä¸Ģä¸ª":2390,"ï¼Į\"":2391,"åĨ¬":2392,"åĴª":2393,"ä¹ħ":2394,"çĨŁ":2395,"ç»ĺ":2396,"æ©":2397,"é£ĺ":2398,"èĻļæĭŁ":2399,"æĪĳä»¬çļĦçĶŁæ´»":2400,"æİ¨å¹¿":2401,"è´ŁéĿ¢":2402,"åı£æĦŁ":2403,"å½ĵåīį":2404,"æī§è¡Į":2405,"ä¼°":2406,"æ°Ķä½ĵ":2407,"å°ıæĺİ":2408,"åĪ¶éĢł":2409,"éĿ¢å¯¹":2410,"çļĦçĪ±":2411,"åºĶå¯¹":2412,"çĥ§":2413,"éĢĤå½ĵ":2414,"æ¹ĸ":2415,"çļĦæĻº":2416,"åĽŀæĶ¶":2417,"ä½łéľĢè¦ģ":2418,"åįļ":2419,"æķĪæŀľ":2420,"éĩĩçĶ¨":2421,"å®Ī":2422,"è¿Ļé¦ĸ":2423,"æŁ¥è¯¢":2424,"èĽĭçĻ½":2425,"ä»ĺ":2426,"æĥħèĬĤ":2427,"ç»ıåħ¸":2428,"çļĦçĭ":2429,"æĲŃ":2430,"è½¯ä»¶":2431,"çİ¯ä¿ĿçļĦ":2432,"çļĦæĥ³":2433,"å®¹æĺĵ":2434,"ä½įäºİ":2435,"å¯¹è¯ĿåĨħå®¹":2436,"å®ģ":2437,"ä¸Ģä½į":2438,"çļĦæ®µ":2439,"äºĴèģĶç½ĳ":2440,"çĦ¦èĻĳ":2441,"é¹":2442,"ä»¥ä¸Ĭ":2443,"åıĸåĨ³":2444,"å®Įåħ¨":2445,"åıĸåĨ³äºİ":2446,"æĤ£èĢħ":2447,"èģĬå¤©":2448,"æķħ":2449,"æľµ":2450,"å¦Ļ":2451,"æ£®æŀĹ":2452,"çī©ä½ĵ":2453,"è·Ŀ":2454,"çļĦæĢĿ":2455,"çļĦå¤§":2456,"ç¨³":2457,"åıĮ":2458,"è§¦":2459,"åı£åĳ³":2460,"çī¹å®ļçļĦ":2461,"èĬĤçº¦":2462,"æıĲä¾Ľå¸®åĬ©":2463,"è¾¾åĪ°":2464,"éĨĴ":2465,"æĺŁçĲĥ":2466,"åĲ¯":2467,"åıĹæ¬¢è¿İ":2468,"è¯·éĹ®æĤ¨":2469,"éģµ":2470,"ä»¿ä½Ľ":2471,"æ´Ĺ":2472,"æĪĲéķ¿":2473,"æĻ¯çĤ¹":2474,"åģ¥åº·çļĦ":2475,"æľ«":2476,"çļĦæĻ¯":2477,"æīĭæľº":2478,"ä»Ģä¹Īæĺ¯":2479,"çĲĨè®º":2480,"åĿĲ":2481,"çĬ¶åĨµ":2482,"åı¯ä»¥è®©":2483,"è¸":2484,"éĿ¢ä¸Ĭ":2485,"ç©ºéĹ´":2486,"åķĨä¸ļ":2487,"å¿ħè¦ģ":2488,"æĦŁåıĹåĪ°":2489,"æ¨¡æĭŁ":2490,"åŃ¦ä¹łåĴĮ":2491,"è¯ŃéŁ³è¯ĨåĪ«":2492,"§è§Ĩ":2493,"æĹ¨":2494,"æ··":2495,"å±Ģ":2496,"åħ¬åħ±":2497,"æļĹ":2498,"èĸ":2499,"ç¥ŀç»ı":2500,"åĴ¨":2501,"è¯¾":2502,"åĴ¨è¯¢":2503,"åħ³éĶ®è¯į":2504,"ĠæĢ»ä¹ĭ":2505,"æ¶²":2506,"åĨįçĶŁ":2507,"åĩĨç¡®åľ°":2508,"ç§°ä¸º":2509,"åĲĪéĢĤ":2510,"å¤§åĪ©":2511,"éĹª":2512,"åĨ²":2513,"æ±ĩ":2514,"ç«ŀ":2515,"ç»ĨèĬĤ":2516,"éĻĲåĪ¶":2517,"åŁ¹":2518,"åº¦åĴĮ":2519,"æĲľç´¢":2520,"è¡¨ç¤º":2521,"ä»İè¿Ļç¯ĩæĸĩç«łä¸ŃæıĲåıĸ":2522,"æ±Ł":2523,"éħ±":2524,"éĢīé¡¹":2525,"å°¤":2526,"åı¯èĥ½æĺ¯":2527,"åŃ¤çĭ¬":2528,"çĽĲ":2529,"æĺ¥å¤©":2530,"è¿Ļåı¥è¯Ŀ":2531,"ä¾ĭåŃĲ":2532,"æ°§åĮĸ":2533,"å¹ħ":2534,"å£°éŁ³":2535,"åĽ½éĻħ":2536,"åĩıè½»":2537,"ä»¥ç¡®ä¿Ŀ":2538,"çº¸":2539,"æŁĲä¸ª":2540,"èĩªåĬ¨åĮĸ":2541,"åŀĥåľ¾åĪĨç±»":2542,"èľľ":2543,"ç»ĵåĲĪ":2544,"åĵªéĩĮ":2545,"åĽ°éļ¾":2546,"æıĲä¾ĽäºĨ":2547,"å·§åħĭ":2548,"çĮ«åĴª":2549,"è¾ħ":2550,"éĿł":2551,"åįĬ":2552,"äººçĶŁ":2553,"çļĦçĥŃ":2554,"éļıæĹ¶":2555,"åħ°":2556,"æĻºèĥ½å®¶å±ħ":2557,"é¡¾":2558,"æł¸":2559,"åĪļ":2560,"æĤ¦":2561,"èĲ¨":2562,"è®°å½ķ":2563,"åĵģç§į":2564,"æł·çļĦ":2565,"æ¬£":2566,"ä¸»äºº":2567,"çļĦæ®µèĲ½":2568,"çĽ¸äºĴ":2569,"è°·":2570,"ä¸Ŀ":2571,"å²ģ":2572,"å°½åĬĽ":2573,"çļĦè¯Ĺ":2574,"æĪĳå¾Ī":2575,"åľ¨ä¸Ģä¸ª":2576,"è´µ":2577,"å¤§åľ°":2578,"èĢĮä¸įæĺ¯":2579,"è´Ńçī©":2580,"çļĦçŁŃ":2581,"çļĦæ·":2582,"åģľ":2583,"ç»Ļä½ł":2584,"éĴĪå¯¹":2585,"çļĦæľĢ":2586,"æľºæŀĦ":2587,"è´§":2588,"å¸®åĬ©ä½ł":2589,"å¾®é£İ":2590,"å·§åħĭåĬĽ":2591,"èĥ½åĲ¦":2592,"çļĦæ¸©":2593,"å¼ĥ":2594,"åľ¨çº¿":2595,"åĮºåĿĹ":2596,"åĨĻä¸Ģç¯ĩåħ³äºİäººå·¥æĻºèĥ½":2597,"æĺ¯çļĦ":2598,"æĺ¯çĶ±":2599,"æĤ¨æıĲä¾Ľ":2600,"çļĦåħ·ä½ĵ":2601,"åıĺå¾ĹæĽ´åĬł":2602,"æ¦Ĥå¿µ":2603,"è¿Ļæł·æĪĳæīįèĥ½":2604,"ç¥Ŀ":2605,"åĸľæ¬¢çļĦ":2606,"èº«ä»½":2607,"æ²Ļæ»©":2608,"è®¢":2609,"åīįæĻ¯":2610,"ç»´æĬ¤":2611,"åĢĴ":2612,"æ·±åĪ»":2613,"éª¤":2614,"çļĦä½¿çĶ¨":2615,"çľģ":2616,"æ¸ħæĻ":2617,"è§Ĵåº¦":2618,"æ¶Īè´¹":2619,"é¸£":2620,"ç¬¦åĲĪ":2621,"è¿¹":2622,"æĹ¥æľ¬":2623,"19":2624,"å¼ĢæĶ¾":2625,"ç¤¾äº¤åªĴä½ĵ":2626,"åľ¨æľªæĿ¥":2627,"çļĦéĢīæĭ©":2628,"å®£":2629,"çļĦçİ¯å¢ĥ":2630,"çĽ¸å¯¹":2631,"çļĦæĳ":2632,"èĢĹ":2633,"äºĶä¸ª":2634,"ç£":2635,"å±ķçİ°":2636,"è§ĦåĪĴ":2637,"çļĦåĨħå®¹":2638,"èĥģ":2639,"åĨĴéĻ©":2640,"ä¸ĢèĪ¬":2641,"ä¹ĲæĦı":2642,"è°ģ":2643,"å¨ģèĥģ":2644,"\"ãĢģ":2645,"ç¡®å®ŀ":2646,"ç±į":2647,"±ä¹Ĳ":2648,"æĪĳæĹłæ³ķ":2649,"çĶļ":2650,"æĳĦåħ¥":2651,"é¢Ŀ":2652,"è¡¨éĿ¢":2653,"çļĦä¸Ģä¸ª":2654,"æ±ł":2655,"èĤª":2656,"èĦĤèĤª":2657,"é¢Ħéĺ²":2658,"çıį":2659,"è§ĦåĪĻ":2660,"ç±»åŀĭçļĦ":2661,"ç¾İåĳ³":2662,"è·Ŀç¦»":2663,"åľĨ":2664,"æĹĭ":2665,"æīĢåľ¨":2666,"æŃ£ç¡®çļĦ":2667,"æķĳ":2668,"åĬ³":2669,"æ¸ħæ´ģ":2670,"äººåĳĺ":2671,"æģĲ":2672,"æĮīçħ§":2673,"æİĮ":2674,"ä¹³":2675,"çĶŁéķ¿":2676,"æıĲåıĸåĩº":2677,"èĽĭçĻ½è´¨":2678,"æĻºæħ§":2679,"æŃ§è§Ĩ":2680,"æ¥¼":2681,"æĽ´å¥½çļĦ":2682,"è·µ":2683,"ä¸Ĭä¸ĭ":2684,"åĪº":2685,"çļĦæĹ¶éĹ´":2686,"é¡º":2687,"çĶļèĩ³":2688,"ä¸ĸçķĮä¸ĬæľĢ":2689,"äººçī©":2690,"æĳĺè¦ģ":2691,"é¢ĺçĽ®":2692,"åĮºåĿĹéĵ¾":2693,"é£İæĻ¯":2694,"\"ãĢģ\"":2695,"åįĪ":2696,"åı¯èĥ½éľĢè¦ģ":2697,"éĢ»":2698,"éĢĤéĩı":2699,"çģ¾å®³":2700,"åı¤ä»£":2701,"éľĢè¦ģæ³¨æĦı":2702,"ŁéĢļ":2703,"è¿Ļæ®µ":2704,"çļĦåİĨåı²":2705,"å®«":2706,"ç»ĻæĪĳä¸ĢäºĽ":2707,"æ¹¿":2708,"æľĹ":2709,"å®ļæľŁ":2710,"çĨĬ":2711,"åı¯åĨįçĶŁ":2712,"å¾Īå¥½":2713,"è¯Ħä¼°":2714,"æĢ»æĺ¯":2715,"åĳ¨åĽ´":2716,"åĹ":2717,"å·ŀ":2718,"çļĦå¸®åĬ©":2719,"åĨĻä¸Ģç¯ĩåħ³äºİçİ¯ä¿ĿçļĦæĸĩç«ł":2720,"ç¾İä¸½çļĦ":2721,"å®ģéĿĻ":2722,"åĨ¥":2723,"å¯Ĵ":2724,"åĽº":2725,"ä¸Ģæł·":2726,"éĢ»è¾ĳ":2727,"å¤§æ°Ķ":2728,"é¢ĨåŁŁçļĦåºĶçĶ¨":2729,"ç»ĻæĪĳä¸Ģä¸ª":2730,"å¤ľæĻļ":2731,"åĴĮæĸĩåĮĸ":2732,"æİ¥ä¸ĭæĿ¥":2733,"å¿Ļ":2734,"æįŁ":2735,"å®ŀè·µ":2736,"æĦŁè°¢":2737,"å¥ĸ":2738,"æľĿ":2739,"çĽ®çļĦåľ°":2740,"çĹĽ":2741,"éĤ£éĩĮ":2742,"ç®±":2743,"è¿Ľåħ¥":2744,"çĶŁæĪĲä¸Ģæ®µ":2745,"æ£Ĵ":2746,"ä¸ĸçºª":2747,"å±ķç¤º":2748,"çģµæĦŁ":2749,"ä¸Ģå¤©":2750,"çļĦæıı":2751,"æłĩåĩĨ":2752,"èĤ¤":2753,"æ³¡":2754,"çıŃ":2755,"è½»è½»":2756,"ç³ķ":2757,"åĶ±":2758,"æ·»åĬł":2759,"in":2760,"æĬ±":2761,"çļĦç®":2762,"åīĤ":2763,"å¥³æĢ§":2764,"é¥°":2765,"çļĦæ¦Ĥ":2766,"çļĦçº":2767,"éĹ®é¢ĺçļĦ":2768,"æľīåĵªäºĽ":2769,"ç¬¬äºĮ":2770,"åĴĮæ²»çĸĹ":2771,"å¤§æķ°æį®":2772,"è§£åĨ³æĸ¹æ¡Ī":2773,"å°¤åħ¶":2774,"èĦļ":2775,"åĳ³éģĵ":2776,"çļĦæĿ¥è¯´":2777,"å·¦åı³":2778,"é¢Ĺ":2779,"ä¸įæĸŃåıĳå±ķ":2780,"äººä»¬çļĦ":2781,"åĪĨéĴŁ":2782,"æĪĳåľ¨":2783,"ä¾¿åĪ©":2784,"çļĦæİ¨":2785,"éģĩåĪ°":2786,"èĲ¥éĶĢ":2787,"è¾ħåĬ©":2788,"æĽ¾":2789,"äºĴåĬ¨":2790,"å¯»æ±Ĥ":2791,"ç§įç±»":2792,"å®ļä¹ī":2793,"æĪĲæľ¬":2794,"åģļèµ·":2795,"ä¹ĺ":2796,"ä¸Ģä¸ªäºº":2797,"é¥Ń":2798,"éĥ½ä¼ļ":2799,"èī¯å¥½çļĦ":2800,"æ±ī":2801,"å½ĵä»Ĭ":2802,"åıĸå¾Ĺ":2803,"æĢĿç»´":2804,"èº«ä½ĵåģ¥åº·":2805,"ãĢĭãĢĤ":2806,"çļĦé£Łçī©":2807,"æĹ¢":2808,"æĲŃéħį":2809,"åķĬ":2810,"æĥħç»ª":2811,"åķĨåĵģ":2812,"çļĦè¯Ŀé¢ĺ":2813,"ä¸Ģåı¥":2814,"æ»ĳ":2815,"æĺ¯ä¸ŃåĽ½":2816,"èĤĮ":2817,"æ³ķè§Ħ":2818,"æĤł":2819,"åĳĪ":2820,"çº³":2821,"ç¨ĭåº¦":2822,"é»ĺ":2823,"è°±":2824,"èĭĹ":2825,"ç»¼":2826,"æ³¨éĩį":2827,"æŁ¥çľĭ":2828,"æı¡":2829,"èĥŀ":2830,"åĤ¨":2831,"åĨ¥æĥ³":2832,"æ¶īåıĬåĪ°":2833,"æĬķèµĦ":2834,"å¸ģ":2835,"éĤ£äºĽ":2836,"è¿ĩåİ»":2837,"æĸ°é²ľ":2838,"çł´åĿı":2839,"ç»Ļå®ļ":2840,"æģĴ":2841,"çİ¯ä¿ĿæĦıè¯Ĩ":2842,"å¨±ä¹Ĳ":2843,"èº«å¿ĥ":2844,"é»ĳæ´ŀ":2845,"çļĦæĥ³æ³ķ":2846,"éĹŃ":2847,"åħħæ»¡äºĨ":2848,"åĨĻä¸Ģä¸ª":2849,"åľ¨ä¸Ģèµ·":2850,"èī²å½©":2851,"æĤ¨å¥½":2852,"ä¼¼ä¹İ":2853,"éĻĦ":2854,"èĤ¥":2855,"ä¿Ŀè¯ģ":2856,"ä»įçĦ¶":2857,"çīĪ":2858,"å®ĥåı¯ä»¥":2859,"ç¨į":2860,"åĵ²":2861,"çļĦæĹ¶åĢĻ":2862,"å¤«":2863,"åĢ¾":2864,"ç²¾ç¥ŀ":2865,"æł¡":2866,"æĺİç¡®":2867,"çļĦæ±":2868,"è¯·å¸®æĪĳ":2869,"å¿ĥæĥħ":2870,"ç§ĳåŃ¦å®¶":2871,"ä¸»ä¹ī":2872,"èĩªè¡Į":2873,"ĠéļıçĿĢ":2874,"è½®":2875,"æĹ¶æľŁ":2876,"å·¨å¤§":2877,"æĬĺ":2878,"çĽĽ":2879,"ä¿ĿæĬ¤æĪĳä»¬çļĦ":2880,"æĦŁåħ´è¶£":2881,"åĿļæĮģ":2882,"æ¬§":2883,"ç»ķ":2884,"çĽĺ":2885,"ä¸Ĭä¸ĭæĸĩ":2886,"è¾Ĩ":2887,"çļĦæķĪ":2888,"ä¹¦ç±į":2889,"åĬ©æīĭ":2890,"æĹłéĻĲ":2891,"çľŁæŃ£":2892,"æ¾":2893,"ä½ľä¸ºä¸Ģä¸ª":2894,"å¹¿åĳĬ":2895,"äººå·¥æĻºèĥ½åı¯ä»¥":2896,"å°Ĩåħ¶":2897,"å¥³åŃ©":2898,"çļĦå·¥ä½ľ":2899,"æĹłè®ºæĺ¯":2900,"çļĦçłĶ":2901,"æĻºèĥ½åĮĸ":2902,"æĢİä¹Īæł·":2903,"ç»Ĩèĥŀ":2904,"è¯ļ":2905,"éªĳ":2906,"ä½Ļ":2907,"æĶ¹è¿Ľ":2908,"æµªæ¼«":2909,"éķĩ":2910,"ï¼Ł\"":2911,"åĴĮè°":2912,"ï¼īï¼Į":2913,"çŃīéĹ®é¢ĺ":2914,"çº½":2915,"çļĦåŁİå¸Ĥ":2916,"è®¿":2917,"åı¯åĨįçĶŁèĥ½æºĲ":2918,"åĮ»çĸĹä¿Ŀåģ¥":2919,"å¿ĥçģµ":2920,"åĨĻä¸Ģç¯ĩä»ĭç»į":2921,"ä¹¡":2922,"éģį":2923,"ä¸ªæĢ§åĮĸ":2924,"æĿ¥æºĲ":2925,"æĸĩåĮĸåĴĮ":2926,"æģ¶":2927,"èķ":2928,"å¥ı":2929,"çıł":2930,"éĢĴ":2931,"å¡Ķ":2932,"çĶµè§Ĩ":2933,"çļĦåĲįåŃĹ":2934,"æ´¾":2935,"ç¨³å®ļ":2936,"çīĻ":2937,"åĲ¬èµ·æĿ¥":2938,"çļĦæ·±":2939,"è¿ĺéľĢè¦ģ":2940,"å®¶äºº":2941,"å¤§å®¶":2942,"éĺ¶":2943,"çļĦç©":2944,"åĨħå¿ĥ":2945,"åĩºæĿ¥":2946,"æ®Ĭ":2947,"ç§»":2948,"çĶŁæĹ¥":2949,"è¯´æĺİ":2950,"æµģè¡Į":2951,"æĢĢ":2952,"åĬ¨ä½ľ":2953,"æ®µèĲ½":2954,"å¤ªéĺ³ç³»":2955,"çļĦçģµ":2956,"å¦Ĥæŀľä½łåĸľæ¬¢":2957,"çĽ¸ä¿¡":2958,"æĬĹ":2959,"å¯¹äººç±»":2960,"ä¸Ģæľ¬":2961,"è¿Ļæĺ¯ä¸Ģ":2962,"è¯»èĢħ":2963,"çļĦç¬ĳ":2964,"èĳĹåĲįçļĦ":2965,"åİļ":2966,"ç¬Ķ":2967,"åį³åı¯":2968,"çħ®":2969,"æ··åĲĪ":2970,"çīĽå¥¶":2971,"åĸĿ":2972,"å¥¥":2973,"å½±åĥı":2974,"ç»ıå¸¸":2975,"æĹ¶åĢĻ":2976,"çī¹æ®Ĭ":2977,"åľ¨äºİ":2978,"åīįå¾Ģ":2979,"çļĦæĮĳæĪĺ":2980,"æµªè´¹":2981,"ä¸Ĭæµ·":2982,"éļıæľº":2983,"çĻ»":2984,"ç§ĳæĬĢçļĦ":2985,"å»ºè®®æĤ¨":2986,"äººæ°ĳ":2987,"è¯Ńæ³ķ":2988,"éĤ®":2989,"èļ":2990,"çĪ½":2991,"çĽ¸åĲĮ":2992,"çº¢èī²":2993,"æ¬£èµı":2994,"çļĦæııè¿°":2995,"çº·":2996,"åĩĨç¡®çļĦ":2997,"ç¼©":2998,"äº¤æĺĵ":2999,"çļĦæŃĮ":3000,"éº¦":3001,"çĽ¸åħ³çļĦ":3002,"åĨľä¸ļ":3003,"ä¼ĺåĬ¿":3004,"å®īæİĴ":3005,"éŃĶæ³ķ":3006,"100":3007,"å®¤æ°Ķä½ĵ":3008,"on":3009,"èª":3010,"èĪ¹":3011,"éķ¿æľŁ":3012,"åĶĲ":3013,"è¯¦ç»Ĩä¿¡æģ¯":3014,"æĸĩåŃĹ":3015,"æį·":3016,"éķľ":3017,"å£®":3018,"é£ŀè¡Į":3019,"åı¯ä»¥èĢĥèĻĳ":3020,"éĶħ":3021,"æī©":3022,"èĢĲ":3023,"çĶµèĦĳ":3024,"è¯Ħè®º":3025,"æŃ»":3026,"æľªçŁ¥":3027,"çĬ¯":3028,"èĤ¡":3029,"åĴĮæĮĳæĪĺ":3030,"æ·±è¿ľ":3031,"è¿ŀæİ¥":3032,"æĸĹ":3033,"åį·":3034,"æĪĳè®¤ä¸º":3035,"å¦ĤæŃ¤":3036,"çļĦè¯Ŀ":3037,"è®©ä½ł":3038,"çļĦç¾İå¥½":3039,"è½½":3040,"åĴĮåħ¶ä»ĸ":3041,"èĭı":3042,"æ·¡":3043,"æĿĳ":3044,"å¢ŀéķ¿":3045,"ä»İæĸĩç«łä¸ŃæıĲåıĸåĩº":3046,"éĽ¶":3047,"çļĦè¡Įä¸º":3048,"çļĦæĢ§":3049,"æ°ı":3050,"èĻ«":3051,"ĠåĽłæŃ¤":3052,"ç«¥":3053,"ä¹Łæľī":3054,"è®¤è¯Ĩ":3055,"åĪĽå»º":3056,"å°½ç®¡":3057,"åĸľå¥½":3058,"é«ĺåº¦":3059,"äºĭå®ŀ":3060,"èģª":3061,"å°½éĩı":3062,"çº½çº¦":3063,"èµĸ":3064,"çī¹èī²":3065,"åºĨ":3066,"ĠæĪĳ":3067,"çĥŁ":3068,"å½¢çĬ¶":3069,"è¶³çĲĥ":3070,"å®£ä¼ł":3071,"éĩįè§Ĩ":3072,"å°¾":3073,"æĪĲåĪĨ":3074,"é»İ":3075,"ç±»ä¼¼":3076,"åľ¨å®¶":3077,"æĢ¥":3078,"çļĦæ¸¸":3079,"ç¤¾ä¼ļçļĦ":3080,"çļĦçŁ¥":3081,"å°ļ":3082,"åĪĨåŃĲ":3083,"èĵĿèī²":3084,"è§Ħå¾ĭ":3085,"éĶĢåĶ®":3086,"å¹¶æ²¡æľī":3087,"äººå·¥æĻºèĥ½çļĦåıĳå±ķ":3088,"èĦ±":3089,"æ±ģ":3090,"æĸ¹éĿ¢çļĦ":3091,"ä½ĵçİ°":3092,"éĻĪ":3093,"éĩįçĤ¹":3094,"å®ŀéªĮ":3095,"å®ŀéĻħä¸Ĭ":3096,"æĻ´":3097,"è¿ĩåº¦":3098,"è§Ĥå¯Ł":3099,"åĴĮè°Ĳ":3100,"åĩºäºĨ":3101,"æĭį":3102,"çĪ±å¥½":3103,"çĶŁæ´»æĸ¹å¼ı":3104,"æĿŁ":3105,"æĦıå¤§åĪ©":3106,"åĩĢ":3107,"è¯·éĹ®ä½ł":3108,"çļĦç©º":3109,"è½»æĿ¾":3110,"é¼ł":3111,"çĸ«èĭĹ":3112,"çļĦç²":3113,"åĨħéĥ¨":3114,"æĹ¶åħī":3115,"çļĦäºĭæĥħ":3116,"åĽ¾åĥıè¯ĨåĪ«":3117,"çļĦæ²»":3118,"å½¼":3119,"æķ£æŃ¥":3120,"åĮºåŁŁ":3121,"ĽåĽ´":3122,"è§£éĩĬä¸Ģä¸ĭ":3123,"âĢ¦":3124,"å°ģ":3125,"æľªæĿ¥åıĳå±ķ":3126,"éĩįæĸ°":3127,"è¡Ĺ":3128,"çĤĴ":3129,"åĵªç§į":3130,"åºĬ":3131,"åĵ²åŃ¦":3132,"éĥģ":3133,"é¥®æĸĻ":3134,"æķ¢":3135,"å®ŀæĹ¶":3136,"æĺ¯æĪĳä»¬":3137,"éĹ²":3138,"åħĶ":3139,"ç§Ģ":3140,"è´´":3141,"çªģçĦ¶":3142,"æĥ³è±¡":3143,"æķ°éĩı":3144,"éĽħ":3145,"çļĦæłĩ":3146,"æĪĳæľĢè¿ĳ":3147,"åĳĺå·¥":3148,"äº§çĶŁäºĨ":3149,"çļĦçłĶç©¶":3150,"æĩ":3151,"ç§»åĬ¨":3152,"çľĭçľĭ":3153,"èģªæĺİ":3154,"æĪĳæĥ³çŁ¥éģĵ":3155,"èĩ³åħ³":3156,"çļĦä¸Ģéĥ¨åĪĨ":3157,"æĿ¥èĩª":3158,"åĺ":3159,"åĩºè¡Į":3160,"50":3161,"æĹ¨åľ¨":3162,"æľ¬æĸĩ":3163,"ç»ıè¿ĩ":3164,"¡èĲ":3165,"åĬĽçļĦ":3166,"èĩªçĦ¶çģ¾å®³":3167,"è®²ä¸Ģä¸ª":3168,"åºĵ":3169,"äºĭçī©":3170,"ä¸ĭéĿ¢æĺ¯":3171,"çļĦæĻºèĥ½":3172,"æĸ¹ä¾¿":3173,"å©ļ":3174,"èľĤ":3175,"éĺĶ":3176,"è¯¾ç¨ĭ":3177,"æ·ĭ":3178,"çļĦç¥":3179,"ä»ĸäºº":3180,"èĽĭç³ķ":3181,"è¿ħ":3182,"æĭ¿":3183,"å¹³çŃī":3184,"åĪĹåĩº":3185,"çļĦæīĭ":3186,"çļĦåģ¥åº·":3187,"å¤§çº¦":3188,"åĲ«ä¹ī":3189,"å¦ĤåĲĮ":3190,"è±¡å¾ģ":3191,"å·¥ç¨ĭ":3192,"çĽ´åĪ°":3193,"è®°å¿Ĩ":3194,"å»¶":3195,"è¯įæ±ĩ":3196,"æľĢé«ĺ":3197,"ä¸»é¢ĺæĺ¯":3198,"ä¸Ģæ¬¾":3199,"åĪĨåĪ«":3200,"ä¹ĭåīį":3201,"è¯Ħä»·":3202,"è¡£æľį":3203,"è¾£":3204,"æľīæ²¡æľī":3205,"æī®":3206,"ä¸ľè¥¿":3207,"ä»¥ä¸ĭæĺ¯ä¸Ģç¯ĩåħ³äºİ":3208,"ä½Ĩä¸į":3209,"å¤©æ°Ķé¢ĦæĬ¥":3210,"ä¼łæĴŃ":3211,"åİŁçĲĨ":3212,"é¢ĨåŁŁçļĦ":3213,"èĳ±":3214,"è¡¥":3215,"èĢĢ":3216,"å°½åı¯èĥ½":3217,"å¦Ĥä¸ĭ":3218,"æľĢå¥½":3219,"åº¦åģĩ":3220,"æŃ¥éª¤":3221,"åĳĪçİ°":3222,"æĹ¶ä»£":3223,"æŀĿ":3224,"å¾ĹåĪ°äºĨ":3225,"æİ¢éĻ©":3226,"çİī":3227,"æĥ³æ³ķ":3228,"å¹¶åľ¨":3229,"å®ĺæĸ¹":3230,"æĺ¯äººç±»":3231,"è¯įè¯Ń":3232,"æĳĩ":3233,"éĻĲäºİ":3234,"é«ĺåħ´":3235,"æ¶¦":3236,"ä¹ŁéľĢè¦ģ":3237,"æķı":3238,"ä¼ĳæģ¯":3239,"èĩªä¸»":3240,"çļĦç¤¾ä¼ļ":3241,"èĬĤæĹ¥":3242,"æıĲåĪ°äºĨ":3243,"æĢĿæĥ³":3244,"å»ºè®¾":3245,"èĢ³":3246,"å·Ŀ":3247,"åı£åı·":3248,"çļĦæĮĩ":3249,"è¶ĬæĿ¥è¶Ĭå¤ļ":3250,"å¸¸è§ģçļĦ":3251,"çĶŁç´ł":3252,"å·®å¼Ĥ":3253,"åıĬæĹ¶":3254,"éĢļå¸¸ä¼ļ":3255,"æĬ½":3256,"å®Įæķ´":3257,"éĩįå¤į":3258,"è´ŁéĿ¢å½±åĵį":3259,"å¹´æĿ¥":3260,"åĵģå°Ŀ":3261,"åĪĨä¸º":3262,"æĹ¥å¸¸çĶŁæ´»ä¸Ń":3263,"ç§įæĹı":3264,"æĤ¬":3265,"çļĦæ²»çĸĹ":3266,"åħ¬åı¸çļĦ":3267,"å½ĵä½ł":3268,"åĽŀå¿Ĩ":3269,"åħ¨éĿ¢":3270,"å¹¿æ³ĽçļĦåºĶçĶ¨":3271,"çļĦåħī":3272,"çĶ°":3273,"çľĭèµ·æĿ¥":3274,"AIæĬĢæľ¯":3275,"çļĦä¸»":3276,"çĿ¡çľł":3277,"çķħ":3278,"å¥½çľĭ":3279,"çļĦçŁ¥è¯Ĩ":3280,"ä½ľèĢħ":3281,"æľŁå¾ħ":3282,"æİ¨èįĲä¸ĢäºĽ":3283,"èĩªè¡Įè½¦":3284,"åı¤èĢģ":3285,"èĩªèº«":3286,"è¯·ä¸ºæĪĳ":3287,"ä½łè§īå¾Ĺ":3288,"çķĻä¸ĭ":3289,"éģĩåĪ°äºĨ":3290,"å¡«":3291,"çļĦæİªæĸ½":3292,"ç¿»è¯ĳæĪĲ":3293,"è¿Ŀ":3294,"æĤ¨æĥ³è¦ģ":3295,"çłĶåıĳ":3296,"è§Ħå®ļ":3297,"ç¬ĳè¯Ŀ":3298,"è°ľ":3299,"åį«çĶŁ":3300,"çªĹ":3301,"ä¿®æĶ¹":3302,"çļĦèĥ½åĬĽ":3303,"åĨĻä¸Ģé¦ĸ":3304,"å®ľ":3305,"æĶ»":3306,"çĽ¸ä¼¼":3307,"æłĩé¢ĺ":3308,"çļĦçĿ":3309,"å®Ĺ":3310,"æĸĩæĺİ":3311,"éĿŀå¸¸éĩįè¦ģçļĦ":3312,"çļĦæ¦Ĥå¿µ":3313,"ä¸Ģçīĩ":3314,"ä¸°å¯ĮçļĦ":3315,"äººå·¥æĻºèĥ½å°Ĩ":3316,"ç§ĳæĬĢåĪĽæĸ°":3317,"çļĦç¼":3318,"å¤ªç©ºæİ¢ç´¢":3319,"æİ¨çĲĨ":3320,"åı¯ä»¥å°Ŀè¯ķ":3321,"éļ¾ä»¥":3322,"çļĦæ³ķ":3323,"éĻ¤äºĨ":3324,"åŃĲçļĦ":3325,"éĥ¨çĶµå½±":3326,"è§Ĩé¢ĳ":3327,"è´¦":3328,"çİ¯å¢ĥéĹ®é¢ĺ":3329,"æµ·è¾¹":3330,"èĢĮæĺ¯":3331,"å½¢è±¡":3332,"åıªæĺ¯":3333,"èĦī":3334,"æ²ŁéĢļ":3335,"ä¸įä»ħä»ħ":3336,"é¥¼":3337,"èĩªçĦ¶çİ¯å¢ĥ":3338,"çļĦéĺ³åħī":3339,"ä¸įçŁ¥éģĵ":3340,"å¯Ĥ":3341,"é£İæļ´":3342,"è¿Ļæł·çļĦ":3343,"äºĮæ°§åĮĸ":3344,"å·´é»İ":3345,"åį±éĻ©":3346,"çļĦçĹ":3347,"å·²ç»ıæĪĲä¸º":3348,"é£ŁçĶ¨":3349,"æŃĮæĽ²":3350,"ç¤¼çī©":3351,"éĺµ":3352,"åĽłä¸ºå®ĥ":3353,"ç¥ŀç»ıç½ĳç»ľ":3354,"çĭ¬ç«ĭ":3355,"å¥ĭ":3356,"æ¸ħæĻ°":3357,"å¸®æĤ¨":3358,"è¢«å¹¿æ³Ľ":3359,"åĶ¯":3360,"çļĦç¨":3361,"èĭ¦":3362,"åĴĮç¤¾ä¼ļ":3363,"çĿ£":3364,"åħħåĪĨ":3365,"çļĦå¤©æ°Ķé¢ĦæĬ¥":3366,"çĴ":3367,"è¿ĺèĥ½":3368,"æĪ¿éĹ´":3369,"åľ£":3370,"éĿ¢åĮħ":3371,"æ´Ĵ":3372,"çļĦè¿ĲåĬ¨":3373,"çļĦé£İéĻ©":3374,"éľĩ":3375,"é¸¡èĽĭ":3376,"åĴĮåºĶçĶ¨":3377,"æ±¤":3378,"ç¾İçļĦ":3379,"éĵ¶è¡Į":3380,"å®¡":3381,"åľ¨æŁĲäºĽ":3382,"è¦Ĩ":3383,"æī®æ¼Ķ":3384,"ä¹ĭå¤ĸ":3385,"æĪĸæĺ¯":3386,"åĭĩæķ¢":3387,"çļĦæĦŁè§ī":3388,"å¹½":3389,"æĹ¥çĽĬ":3390,"æ»´":3391,"è§Ħæ¨¡":3392,"è®¡ç®Ĺæľºè§Ĩè§ī":3393,"æ¶µ":3394,"æµ®":3395,"èĮĦ":3396,"ç¥ŀç§ĺçļĦ":3397,"å·¨å¤§çļĦ":3398,"æİĮæı¡":3399,"åľ°çĲĥçļĦ":3400,"æĻ¨":3401,"äººå·¥æĻºèĥ½çļĦåºĶçĶ¨":3402,"ä½łè®¤ä¸º":3403,"åıĺæĪĲ":3404,"æııç»ĺ":3405,"å®¶åĽŃ":3406,"éķ¿åº¦":3407,"æ¤Ĵ":3408,"å¹ķ":3409,"å°ıæĹ¶":3410,"å¾ªçİ¯":3411,"åıĳæĺİ":3412,"çļĦæıĲ":3413,"åĴĮåıĳå±ķ":3414,"ä¾Ŀèµĸ":3415,"çļĦçĿ¡":3416,"äºĪ":3417,"å²¸":3418,"æĹ¥æľŁ":3419,"çĽ®çļĦ":3420,"å¯¿":3421,"çĿĽ":3422,"ç½ª":3423,"ãĢĭï¼Į":3424,"åįģåĪĨ":3425,"é¾Ħ":3426,"çļĦçĶŁæ´»æĸ¹å¼ı":3427,"ç¨įçŃī":3428,"¹é¥":3429,"ä¸Ģä¸ªéĹ®é¢ĺ":3430,"ï¼īãĢĤ":3431,"èĴ¸":3432,"¹é¥ª":3433,"æ¸©å®¤æ°Ķä½ĵ":3434,"éĻĦè¿ĳ":3435,"æµĭè¯ķ":3436,"èĻļæĭŁçİ°å®ŀ":3437,"è§Ī":3438,"åľ¨è¿ĻéĩĮ":3439,"ç»Ļå®ļçļĦ":3440,"çŃ¾":3441,"ç»´æĮģ":3442,"å¿ĥä¸Ń":3443,"äºĮæ°§åĮĸç¢³":3444,"å¼Ģå¤´":3445,"çļĦæŀ":3446,"çļĦæĦıä¹ī":3447,"èį¡":3448,"çļĦæķĻ":3449,"éĴ±":3450,"åĪºæ¿Ģ":3451,"ĠçĦ¶èĢĮ":3452,"æİ¥åıĹ":3453,"ç«ŀäºī":3454,"çļĦä»»åĬ¡":3455,"è§£åĨ³éĹ®é¢ĺ":3456,"æĻĴ":3457,"èĦ¸":3458,"çļĦæİĴ":3459,"çļĦæĸĩæľ¬":3460,"çļĦæł¸":3461,"âĢĶâĢĶ":3462,"è®¿éĹ®":3463,"çļĦçĿ¡çľł":3464,"ç»ĻæĤ¨":3465,"çļĦç¬ĳè¯Ŀ":3466,"åı¯ä»¥æĺ¯":3467,"è®¾ç½®":3468,"æľīè®¸å¤ļ":3469,"ä½łæĺ¯":3470,"åı¯ä»¥éĢīæĭ©":3471,"Ġé¦ĸåħĪ":3472,"é¡¿":3473,"æĴ°":3474,"ra":3475,"è¡¨æĺİ":3476,"åħįçĸ«":3477,"è§Ĥä¼Ĺ":3478,"éĺ²æŃ¢":3479,"è·ĥ":3480,"ç§ĳæĬĢåıĳå±ķ":3481,"åľ°çĤ¹":3482,"ç¡¬":3483,"åĪĻæĺ¯":3484,"å¥¹çļĦ":3485,"çĶ³":3486,"åħħè¶³":3487,"ç»´çĶŁç´ł":3488,"ä¸ĬéĿ¢":3489,"åĵ¦":3490,"çĶ·åŃ©":3491,"ä¼¦çĲĨ":3492,"çļĦä¸Ģç§į":3493,"æľīä»»ä½ķ":3494,"æĬ«":3495,"æĦīæĤ¦":3496,"é£İåĲ¹":3497,"çŃīæĸ¹å¼ı":3498,"éľľ":3499,"å¿ł":3500,"ç¤¾åĮº":3501,"çŃīå¾ħ":3502,"è¿ĺæľīåħ¶ä»ĸ":3503,"æĪĳå°Ĩä¸ºæĤ¨":3504,"è¶ħè¿ĩ":3505,"è¿ĳå¹´æĿ¥":3506,"å°±ä¸ļ":3507,"æĪĳå¾Īä¹ĲæĦı":3508,"ä»¥ä¸ĭåĩłä¸ª":3509,"æ©Ļ":3510,"çĶŁæĪĲä¸Ģç¯ĩ":3511,"çĹĩçĬ¶":3512,"åı«åģļ":3513,"æĪĳéľĢè¦ģæĤ¨æıĲä¾Ľ":3514,"éª¨":3515,"æľĢæĸ°çļĦ":3516,"çĥŃéĹ¨":3517,"æĪĳåı¯ä»¥ä¸ºæĤ¨":3518,"éĩĬæĶ¾":3519,"è¾ĵåĩº":3520,"æľīæīĢä¸įåĲĮ":3521,"æŀ¶":3522,"è½¦è¾Ĩ":3523,"ä¸ŃçļĦåºĶçĶ¨":3524,"æĪĳæľīä¸Ģä¸ª":3525,"äººä½ĵ":3526,"åĮĢ":3527,"æ¶ĪèĢĹ":3528,"éĤ®ä»¶":3529,"å¼ºè°ĥäºĨ":3530,"å®½":3531,"æĢ»ä¹ĭ":3532,"æĦīå¿«":3533,"çļĦç¾İé£Ł":3534,"éĥ½åı¯ä»¥":3535,"æĪ·å¤ĸæ´»åĬ¨":3536,"é¢ĨåŁŁä¸Ń":3537,"åŁºåĽł":3538,"æĪĸåħ¶ä»ĸ":3539,"çĲĨè§£åĴĮ":3540,"ç²Ĵ":3541,"å¤ªéĺ³èĥ½":3542,"è´¥":3543,"éĽĦ":3544,"é¡¶":3545,"éĿŀå¸¸éĩįè¦ģ":3546,"è®©äººä»¬":3547,"éĺ´":3548,"è¢«ç§°ä¸º":3549,"ä¼ĺçĤ¹":3550,"ä½łä¼ļ":3551,"ç¨İ":3552,"æĳĦæ°ı":3553,"çļĦæŁ":3554,"å¯¹æľªæĿ¥":3555,"æ¨¡æĭŁäººç±»":3556,"åĪĨæŀĲåĴĮ":3557,"åĳ¨æľ«":3558,"åľ¨è¿Ļ":3559,"åĪ¶åĵģ":3560,"å«":3561,"æīĭæľ¯":3562,"åĪĹè¡¨":3563,"å½¼æŃ¤":3564,"èį·":3565,"æİī":3566,"åº¦è¿ĩ":3567,"çļĦåİŁåĽł":3568,"çļĦç½":3569,"çģŃ":3570,"çĤİçĥŃ":3571,"åŃ¦ä¼ļ":3572,"åĸ»":3573,"éĨī":3574,"æĽ´åĩĨç¡®åľ°":3575,"åĩıå°ĳä½¿çĶ¨":3576,"çĵ¶":3577,"ä»°":3578,"çķª":3579,"çŀ":3580,"æ¿Ģåıĳ":3581,"åĲ«æľī":3582,"çļĦçĭĹ":3583,"å¡ĳæĸĻè¢ĭ":3584,"çļĦæ¶":3585,"åľ°ä¸Ĭ":3586,"æ½ľåľ¨":3587,"éĺ¶æ®µ":3588,"æĶ¯ä»ĺ":3589,"çļĦä¸ĸçķĮ":3590,"å¼±":3591,"æ¯ıä¸ªäººéĥ½åºĶè¯¥":3592,"èī¾":3593,"é£ŁæĿĲ":3594,"éĩįè¦ģçļĦæĺ¯":3595,"éŀ":3596,"çļĦç²¾":3597,"ä¸ĩçī©":3598,"æĹ¥å¸¸çĶŁæ´»":3599,"æ£Ģæµĭ":3600,"åįļçī©":3601,"èĤĮèĤī":3602,"äºĨè®¸å¤ļ":3603,"ä¸ĵæ³¨":3604,"å¾Ģå¾Ģ":3605,"æ¢¦æĥ³":3606,"ä¸Ģéĥ¨":3607,"åĵº":3608,"æįķ":3609,"æŀĦæĪĲ":3610,"é»Ħèī²":3611,"æĿĢ":3612,"çĶ²":3613,"è´Ŀ":3614,"çļĦæĹħæ¸¸":3615,"æ³°":3616,"è¯ķè¯ķ":3617,"è¯¢éĹ®":3618,"èªī":3619,"åı¦ä¸Ģä¸ª":3620,"30":3621,"ä¸Ģç³»åĪĹ":3622,"è¯·ç¨įçŃī":3623,"å£¤":3624,"éĢĥ":3625,"åĴĮå®īåħ¨":3626,"æĬ¥åĳĬ":3627,"æĮĩå¯¼":3628,"åĴĮæ°´":3629,"éŃħ":3630,"çļĦèĬ±":3631,"æĸĩç«łä¸ŃçļĦ":3632,"è¿Ļç¯ĩæĸĩç«łä¸Ń":3633,"æľŁéĹ´":3634,"ĠæŃ¤å¤ĸ":3635,"çİĽ":3636,"æĭĮ":3637,"çī©ç§į":3638,"å¸®ä½ł":3639,"è®¾æĸ½":3640,"è¯º":3641,"å´":3642,"ç¾Ĭ":3643,"è¯·æıĲåıĸ":3644,"çĶ¨æ°´":3645,"çļĦè¯¦ç»Ĩä¿¡æģ¯":3646,"åģļä¸Ģä¸ª":3647,"çĮİ":3648,"æŁĲç§į":3649,"ä¸Ģæ¬¡æĢ§":3650,"éģµå¾ª":3651,"ç´«":3652,"å¤§å°ı":3653,"åł¡":3654,"çļĦæĭ":3655,"ä¸ĥ":3656,"è¿Ĳè¡Į":3657,"çļĦæ¯Ķ":3658,"æĪĳä¼ļå°½åĬĽ":3659,"å¹´çļĦ":3660,"æĻļä¸Ĭ":3661,"è¿Ļé¦ĸè¯Ĺ":3662,"åŃ¦æł¡":3663,"åħĶåŃĲ":3664,"æĺİçĻ½":3665,"çļĦè¿ĩç¨ĭ":3666,"æĹłäºº":3667,"å¤§éĩıçļĦ":3668,"çĽĳç®¡":3669,"æıĲä¾Ľä¸Ģä¸ª":3670,"ä»ĭç»įäºĨ":3671,"çļĦç¾İä¸½":3672,"çĸ«æĥħ":3673,"æīĭæ®µ":3674,"çļĦæ¸ħ":3675,"ä½Ĩä¸įéĻĲäºİ":3676,"å¸¦æĿ¥çļĦ":3677,"è¿ħéĢŁ":3678,"æĺ¯æľĢ":3679,"èĬĴ":3680,"è¢«è®¤ä¸º":3681,"åĮħæĭ¬ä½Ĩä¸įéĻĲäºİ":3682,"æĶ¾åľ¨":3683,"å¤ļæł·æĢ§":3684,"åįļçī©é¦Ĩ":3685,"ä¼ļè®®":3686,"ä»¥ä¸ĭæĺ¯æĪĳä¸ºæĤ¨":3687,"çļĦæĥħåĨµä¸ĭ":3688,"å§¿":3689,"å¥Ĺ":3690,"ä½łæľīä»Ģä¹Ī":3691,"é£İåħī":3692,"å¹´é¾Ħ":3693,"å§Ĩ":3694,"çĽĳæµĭ":3695,"åľŁå£¤":3696,"éĹ®é¢ĺéľĢè¦ģ":3697,"åĵºä¹³":3698,"çļĦéľĢæ±Ĥ":3699,"æĪĲå°±":3700,"çĹħæ¯Ĵ":3701,"çĭĹçļĦ":3702,"çļĦæ¸¸æĪı":3703,"ä¸Ģå®¶":3704,"è¯ĬæĸŃåĴĮæ²»çĸĹ":3705,"ä½łèĥ½å¸®æĪĳ":3706,"æĳĦæ°ıåº¦":3707,"çŃīå¤ļä¸ª":3708,"åĬłéĢŁ":3709,"åĵģè´¨":3710,"æŀģç«¯":3711,"æľīæķĪåľ°":3712,"è²":3713,"åħ·å¤ĩ":3714,"åģĩè®¾":3715,"è§ģè§£":3716,"åı¯çĪ±":3717,"ä½¿åħ¶":3718,"éº»":3719,"åı¯èĥ½å¯¼èĩ´":3720,"ä¸¥æł¼":3721,"æ¯ıä¸ªäººçļĦ":3722,"ä¸Ģåľº":3723,"åĪĨå¸ĥ":3724,"ä»¥ä¸ĭæĺ¯ä¸Ģ":3725,"æ²¿":3726,"æ°¸è¿ľ":3727,"èĢį":3728,"åı¯éĿł":3729,"åĨĻä¸Ģç¯ĩæľīåħ³":3730,"æľīçļĦ":3731,"è§Ĩä¸º":3732,"çĽĳçĿ£":3733,"é½":3734,"ä¹Łå°Ĩ":3735,"èī¯å¥½":3736,"çļĦçģµæĦŁ":3737,"éĺ»":3738,"å¿§":3739,"æĺ¾èĳĹ":3740,"çļĦæł¸å¿ĥ":3741,"åıĤèĢĥ":3742,"åĵ¥":3743,"æ¸ħæĸ°":3744,"ç²¾åĩĨ":3745,"åį³ä½¿":3746,"æĹ¶éĹ´åĴĮ":3747,"åĩ½":3748,"äºİæĺ¯":3749,"æĺ¾ç¤º":3750,"åŁ¹åħ»":3751,"çļĦåĬ¨çī©":3752,"åİŁåĪĻ":3753,"åİŁåŃĲ":3754,"å¤§èĦĳ":3755,"è¹":3756,"æĽ¾ç»ı":3757,"çļĦçİ¯ä¿Ŀ":3758,"åħ«":3759,"éĻª":3760,"çİ©èĢį":3761,"èĥ½ä¸įèĥ½":3762,"æ¯ıä¸Ģ":3763,"åĲĪçī©":3764,"ä¸Ĭåįĩ":3765,"èµŀ":3766,"ä»ĭç»įä¸Ģä¸ĭ":3767,"åħ¬ä¼Ĺ":3768,"åħīçº¿":3769,"ä¸»è§Ĵ":3770,"¢å¤į":3771,"æĢİæł·":3772,"å¹¿æ³ĽåºĶçĶ¨":3773,"çļ®èĤ¤":3774,"æľ¬ä¹¦":3775,"çĶŁæĢģçİ¯å¢ĥ":3776,"çļĦç¬¬":3777,"åºĶçĶ¨ç¨ĭåºı":3778,"çĻĮ":3779,"ä½ľä¸ºä¸Ģä¸ªAI":3780,"ä¹ĭåĲİ":3781,"çĪ¬":3782,"è½¬æį¢":3783,"çļĦçĪ±æĥħ":3784,"é¦Ī":3785,"çŁ¿":3786,"éĢĢ":3787,"åı¯ä»¥æıĲé«ĺ":3788,"åıĺéĿ©":3789,"éĿŀå¸¸å¥½":3790,"åĩıå°ĳæ±¡æŁĵ":3791,"åĲĦä¸ªé¢ĨåŁŁ":3792,"çļĦå®īåħ¨":3793,"ä½łä»¬":3794,"æĦıæĢĿ":3795,"å¸Ŀ":3796,"æī¾åĪ°äºĨ":3797,"èıĮ":3798,"åı¯ä»¥ä»İ":3799,"åģıå¥½":3800,"åĴĮå¯¹":3801,"å¤´èĦĳ":3802,"äº¤éĢļå·¥åħ·":3803,"åĲĪéĢĤçļĦ":3804,"å°±èĥ½":3805,"èį£":3806,"å¤ıå¤©çļĦè¯ĹæŃĮ":3807,"çļĦå°ıè¯´":3808,"åĿĩè¡¡":3809,"çĵľ":3810,"çļĦåıĺåĮĸ":3811,"æīĢéľĢ":3812,"èĿ¶":3813,"å®ĥæĺ¯":3814,"çļĦçĸ":3815,"æ°´ä¸Ń":3816,"çļĦæ¢":3817,"æĢ§åĪ«":3818,"éĩĩåıĸæİªæĸ½":3819,"åªļ":3820,"å¯Ĩçłģ":3821,"çĤ¸":3822,"æĪĲåĳĺ":3823,"é¢ĺæĿĲ":3824,"æİ¥ç§į":3825,"æĻ®åıĬ":3826,"çļĦåŁºæľ¬":3827,"è¡¨è¾¾äºĨ":3828,"ä¸ĢåĲį":3829,"åĮĸåĴĮ":3830,"çī©çĲĨåŃ¦":3831,"æĺ¯å¤ļå°ĳ":3832,"æĥł":3833,"ç§ĳå¹»å°ıè¯´":3834,"æĢª":3835,"æĪĳæ²¡æľī":3836,"äºĨä¸ĢäºĽ":3837,"è·¨":3838,"çİ©å®¶":3839,"å±ĭ":3840,"å®¤åĨħ":3841,"æĶ¾åħ¥":3842,"æĬ¥éģĵ":3843,"æľīä¸Ģå¤©":3844,"çļĦé¢ĨåŁŁ":3845,"ä¸ªäººçļĦ":3846,"ä¿Ŀéļľ":3847,"æĽ´ä¸º":3848,"æ¯ıä¸Ģä¸ª":3849,"èĲ½åı¶":3850,"ä¸ĢæĿ¡":3851,"åĩ½æķ°":3852,"or":3853,"ä½ĵèĤ²":3854,"æľĢä½³":3855,"æĢ§èĥ½":3856,"çļĦæ£":3857,"çŃīæĬĢæľ¯":3858,"åħ¥æīĭ":3859,"æ¶Īè´¹èĢħ":3860,"éĻĨ":3861,"æµģç¨ĭ":3862,"åĪ°è¾¾":3863,"ç®ĢåįķçļĦ":3864,"åıĸä»£":3865,"ä»İè¿Ļç¯ĩæĸĩç«łä¸ŃæıĲåıĸåĩº":3866,"äººå¿ĥ":3867,"åĩºåıĳ":3868,"äºĭä¸ļ":3869,"æĦıè¯ĨåĪ°":3870,"ä¸įæĸŃåľ°":3871,"å¤ıåŃ£æĹħæ¸¸":3872,"12":3873,"é¢Ħç®Ĺ":3874,"å¿«éĢŁåıĳå±ķ":3875,"è°Ĭ":3876,"æĽ¿ä»£":3877,"ä¸»äººåħ¬":3878,"åĭĩæ°Ķ":3879,"çļĦæĳĦ":3880,"çļĦéŁ³ä¹Ĳ":3881,"ä½łåı¯ä»¥å°Ŀè¯ķ":3882,"æıĲéĨĴ":3883,"æĿ¥çľĭ":3884,"åı¯èĥ½çļĦ":3885,"å¦Ī":3886,"ç¾İæĻ¯":3887,"å¦Ĥæŀľä½łæĥ³":3888,"åĬĽåŃ¦":3889,"ç²¾ç¡®":3890,"éŀĭ":3891,"æ·ĩ":3892,"ä¸įéĶĻçļĦéĢīæĭ©":3893,"ä¾µ":3894,"èĢĮè¨Ģ":3895,"èħ¿":3896,"ä»ĸä»¬ä¹ĭéĹ´çļĦ":3897,"çĶ¨çļĦ":3898,"æ¼Ĥ":3899,"åħ±åĲĮåĬªåĬĽ":3900,"æ´»åĬĽ":3901,"çĥ¹é¥ª":3902,"èĬĤèĥ½":3903,"ä¼ĺç§Ģ":3904,"åı¯ä»¥ä½¿çĶ¨":3905,"åĢŁ":3906,"è¸ª":3907,"å²ģæľĪ":3908,"éĥ½èĥ½":3909,"çļĦç¥ŀ":3910,"æĿ°":3911,"æ·ĩæ·ĭ":3912,"å¾Ĵ":3913,"æĺİåªļ":3914,"ç¿©":3915,"åĪĹä¸¾":3916,"åįł":3917,"å¿½":3918,"åĿ¦":3919,"é¸Ń":3920,"äººå·¥æĻºèĥ½æĬĢæľ¯çļĦ":3921,"æľīä¸ĢäºĽ":3922,"çļĦæģ":3923,"å¹¿éĺĶ":3924,"åĨ°æ·ĩæ·ĭ":3925,"æµ·å¹³":3926,"èĦı":3927,"æŀĦå»º":3928,"æĲº":3929,"èĮĥåĽ´åĨħ":3930,"ä¾¿æį·":3931,"èĩ³å°ĳ":3932,"è£ħé¥°":3933,"æ³ķåĽ½":3934,"ç»ĻæĪĳæıĲä¾Ľä¸ĢäºĽ":3935,"å°º":3936,"æĸĩä»¶":3937,"æľ¬èº«":3938,"éĥ¨éĹ¨":3939,"åŁĥ":3940,"çļĦé¢ľèī²":3941,"ä¸Ģå¼ł":3942,"çĺ":3943,"åı¯èĥ½æĢ§":3944,"åĮĸåĲĪçī©":3945,"æģ¢å¤į":3946,"çĥĤ":3947,"çľŁå®ŀ":3948,"è¿Ļä¸¤ä¸ª":3949,"æľĢæĸ°":3950,"å¹¶æıĲä¾Ľ":3951,"ç´¯":3952,"å¾Īå¤§":3953,"15":3954,"åħŃ":3955,"çļĦæ³ķå¾ĭ":3956,"çļĦçĬ":3957,"èĤº":3958,"é¸ŁåĦ¿":3959,"æķĪçİĩåĴĮ":3960,"ä¹Į":3961,"æī°":3962,"åŃĺåĤ¨":3963,"åĪĽéĢłä¸Ģä¸ª":3964,"çĪ¶":3965,"å¼ºçĥĪ":3966,"çļĦæŃ£":3967,"æĪĳæĿ¥":3968,"ä¸ªä½ĵ":3969,"ä¹īè¯į":3970,"çļĦæ¼":3971,"è¶³å¤ŁçļĦ":3972,"æ³Ĭ":3973,"åįĸ":3974,"éĽĨä¸Ń":3975,"ç¬¬ä¸ī":3976,"åĲ¸æĶ¶":3977,"éĩİé¤Ĳ":3978,"èĸĦ":3979,"é£Łè°±":3980,"ä¸ļåĬ¡":3981,"ä½łå¯¹":3982,"å¯¹æĸ¹":3983,"ç»¼åĲĪ":3984,"åĿĩåĮĢ":3985,"åı£è¯Ń":3986,"å±±å³°":3987,"æ¬§æ´²":3988,"ä¿ĿéĻ©":3989,"çķªèĮĦ":3990,"åıĳåĩº":3991,"çļĦçĮ":3992,"çĪĨ":3993,"ç¼ĸè¾ĳ":3994,"éĩĩåıĸè¡ĮåĬ¨":3995,"çĶŁæ´»çļĦ":3996,"çļĦæĶ¯":3997,"ç¦ģ":3998,"ä¿Ĺ":3999,"æ½®":4000,"è¦ĨçĽĸ":4001,"åĵºä¹³åĬ¨çī©":4002,"è¿Ľå±ķ":4003,"çİ¯ä¿ĿéĹ®é¢ĺ":4004,"çī©èģĶç½ĳ":4005,"å°¤åħ¶æĺ¯":4006,"åºĨç¥Ŀ":4007,"æĹħç¨ĭ":4008,"å¼ķåĬĽ":4009,"åı¯ä»¥å¸®åĬ©åĮ»çĶŁ":4010,"è®¤çŁ¥":4011,"æĭĵ":4012,"æĭĶ":4013,"é¦¨":4014,"åıĭè°Ĭ":4015,"åİ»äºĨ":4016,"çĥŃéĩı":4017,"åħ¬æŃ£":4018,"ç®ĢçŁŃ":4019,"ĠæľĢåĲİ":4020,"éģµå®Ī":4021,"é¡¾å®¢":4022,"æŃī":4023,"æµ¸":4024,"åĲįä¸º":4025,"å¿ĥçĲĨåģ¥åº·":4026,"æĪĳéľĢè¦ģæĤ¨æıĲä¾Ľåħ·ä½ĵçļĦ":4027,"æĹ§":4028,"å¼¹":4029,"æģĭ":4030,"åºŁå¼ĥ":4031,"äº¡":4032,"é»ĳæļĹ":4033,"è¿ĻäºĽéĥ½æĺ¯":4034,"é¥®é£Łä¹łæĥ¯":4035,"æ¡Į":4036,"çģµæ´»":4037,"éĩįå¤§":4038,"éĴ¢":4039,"éĩİçĶŁ":4040,"çļĦç½ĳ":4041,"äº§ä¸ļ":4042,"ä»¥ä¸ĭæĺ¯ä¸ĢäºĽ":4043,"ç»ĦåĲĪ":4044,"è®ºæĸĩ":4045,"æıĲåĪ°çļĦ":4046,"çĶŁæľº":4047,"æŀ«":4048,"åłĤ":4049,"å½¢å®¹":4050,"å¿ħè¦ģçļĦ":4051,"çĸ²":4052,"å°ıé¸Ł":4053,"å°±åı¯ä»¥":4054,"æľĢå¤§":4055,"ç©¿è¶Ĭ":4056,"çļĦåŁºç¡Ģ":4057,"è¯·æł¹æį®":4058,"å¼ķåıĳ":4059,"å®¢æ°Ķ":4060,"æ¦Ĥæĭ¬":4061,"è·ĳæŃ¥":4062,"èĩ³åħ³éĩįè¦ģ":4063,"18":4064,"åľ¨ä¸ŃåĽ½":4065,"çļĦæ½":4066,"å±ķå¼Ģ":4067,"èĳ¡èĲ":4068,"èĳ¡èĲĦ":4069,"åĲĮæł·":4070,"ç¢į":4071,"æķ°æį®çļĦ":4072,"è¯·éĹ®æĤ¨éľĢè¦ģ":4073,"å¹¶ä¸įæĺ¯":4074,"èĿī":4075,"åı¯ä»¥æł¹æį®":4076,"è¯·åĪĨäº«":4077,"èĬ³":4078,"è®²è¿°äºĨ":4079,"å¹³åĿĩ":4080,"æŁ¥æī¾":4081,"äººåı£":4082,"æĽ´å¿«":4083,"å¤ıå¤©çļĦ":4084,"åİ¨":4085,"äº¤äºĴ":4086,"æĻ¯è§Ĥ":4087,"çļĦä¸»è¦ģè§ĤçĤ¹":4088,"Ġè¿Ļ":4089,"æĦŁæŁĵ":4090,"çĶŁæĪĲä¸Ģåı¥":4091,"å®ĥä»¬åľ¨":4092,"æ¡¥":4093,"å¤´èĦĳé£İæļ´":4094,"ä¿¡åı·":4095,"çĲ´":4096,"åİĺ":4097,"ç¬¬ä¸Ģ":4098,"åıįé¦Ī":4099,"æ·±è¿ľçļĦå½±åĵį":4100,"è¯ģæĺİ":4101,"çļĦæµģ":4102,"ĠæĢ»çļĦæĿ¥è¯´":4103,"éŃħåĬĽ":4104,"æī¬":4105,"æĹłå°½":4106,"èĭ¹":4107,"åĢ¼å¾Ĺä¸Ģ":4108,"å¢Ļ":4109,"æİ¥è§¦":4110,"çļĦçł´":4111,"èĭ¹æŀľ":4112,"æĭ¼":4113,"åıĳå¸ĥ":4114,"ä¹ŁåºĶè¯¥":4115,"çļĦæĢ»":4116,"å®ĹæķĻ":4117,"çļĦæ¢¦":4118,"è¡¨æ¼Ķ":4119,"çļĦçľ¼":4120,"è§ĦèĮĥ":4121,"èŀįåĲĪ":4122,"éħĴåºĹ":4123,"æŃ£å¸¸":4124,"ä»·åĢ¼è§Ĥ":4125,"è·¯ä¸Ĭ":4126,"çļĦæİĴæĶ¾":4127,"Ġäººå·¥æĻºèĥ½":4128,"å¹´ä»£":4129,"æŃ¦":4130,"äººç±»æ´»åĬ¨":4131,"åĬ¨åĬĽ":4132,"ä¸ºäºĨæıĲä¾Ľå¸®åĬ©":4133,"ä¹Łå¾Ī":4134,"éĿ¢ç§¯":4135,"çļĦæĳĦåħ¥":4136,"æıĲä¾ĽçĽ¸åºĶ":4137,"æ®ĸ":4138,"éģ¥":4139,"æĥ³éĹ®":4140,"çļĦæĸĩç«łä¸Ń":4141,"è¯Ĺäºº":4142,"ä¹Ĳè¶£":4143,"è²Į":4144,"ä¹ı":4145,"å±±èĦī":4146,"æĶ¾æĿ¾èº«å¿ĥ":4147,"èģĬèģĬ":4148,"åħ±äº«":4149,"ç¾¤ä½ĵ":4150,"åĲī":4151,"æľĢå¥½çļĦ":4152,"åį°åº¦":4153,"ä¹Łåľ¨":4154,"çĮľ":4155,"æĪĳå»ºè®®":4156,"çļĩ":4157,"æ»¡æĦı":4158,"æĺ¯åĲ¦æľī":4159,"è°¢è°¢ä½łçļĦ":4160,"çļĦæ°Ķæģ¯":4161,"æĬ«èĲ¨":4162,"éĩĳå±ŀ":4163,"ä¿ĿæĮģåģ¥åº·":4164,"æµ·æµª":4165,"éĻ¤æŃ¤":4166,"å½ĵåľ°çļĦ":4167,"åĳ¨æľŁ":4168,"äºĶè¨Ģ":4169,"æĹ©é¤Ĳ":4170,"è¿Ļæł·æĪĳæīįèĥ½åĪĨæŀĲ":4171,"æīĺ":4172,"çļĦä½įç½®":4173,"èİĵ":4174,"æĻ®éģį":4175,"åı¯ä»¥åİ»":4176,"ä½¿çĶ¨çļĦ":4177,"th":4178,"æĿ¥å®ŀçİ°":4179,"ä½łæĥ³è¦ģ":4180,"å¥½å¤Ħ":4181,"æĮĤ":4182,"è½¬åĮĸ":4183,"éĤ£ä¸ª":4184,"ä¸įçĶ¨":4185,"èĤ´":4186,"åĦ¿ç«¥":4187,"æĪĳæľīä¸Ģä¸ªéĹ®é¢ĺ":4188,"åı¹":4189,"è¿ª":4190,"æ·±åĳ¼åĲ¸":4191,"ä¹Łåı¯èĥ½":4192,"çļĦçł´åĿı":4193,"çļĦæİ¢":4194,"ä¸ºä¸»é¢ĺ":4195,"æĽ´å®¹æĺĵ":4196,"æĳ©":4197,"éĻ¤æŃ¤ä¹ĭå¤ĸ":4198,"ä¸¤äººçļĦ":4199,"çļĦåĲĹ":4200,"çľĭåĪ°äºĨ":4201,"æī¾åĩº":4202,"éĻĪè¿°":4203,"éĥ½åľ¨":4204,"ç£ģ":4205,"st":4206,"åĴĮå·¥ä½ľ":4207,"æ´Ľ":4208,"å°±åĥı":4209,"æĺ¯åĽłä¸º":4210,"çŃīåĽłç´ł":4211,"éĽ·":4212,"å¡ŀ":4213,"ç½ļ":4214,"ç§ĭé£İ":4215,"åģ¶":4216,"æľºéģĩ":4217,"ç©¿çĿĢ":4218,"çļĦåŃ¦ä¹ł":4219,"æĪĳåĸľæ¬¢":4220,"é¢Ħè®¢":4221,"å¿łè¯ļ":4222,"å¦ĤæŀľæĤ¨åĸľæ¬¢":4223,"çĩĥæĸĻ":4224,"ä¹ĭæĹħ":4225,"åħĭæľį":4226,"çīĩæ®µ":4227,"æľĢåĸľæ¬¢":4228,"æľĢä½İ":4229,"é¡µ":4230,"ä½łèĥ½åĳĬè¯īæĪĳ":4231,"en":4232,"è¯¸":4233,"çº¯":4234,"å®ļåĪ¶":4235,"200":4236,"æ¼«æŃ¥":4237,"å°ıçĭĹ":4238,"çļĦçľŁ":4239,"è¿Ļéĥ¨çĶµå½±":4240,"å¤§åŃ¦":4241,"åıªè¦ģ":4242,"æ¦":4243,"è°¢è°¢ä½ł":4244,"èģļä¼ļ":4245,"æľĪäº®":4246,"è¯´æ³ķ":4247,"åĸľçĪ±":4248,"æ¯Ķå¦Ĥè¯´":4249,"çļĦè¿ĩç¨ĭä¸Ń":4250,"æĪĳä»¬å¿ħé¡»":4251,"éĩĮéĿ¢":4252,"çļĦçĤ":4253,"ç§ĳæĬĢçļĦåıĳå±ķ":4254,"è®©æĪĳæĿ¥":4255,"èĬ±åĽŃ":4256,"çĶµæ±ł":4257,"èĢģå¸Ī":4258,"æ¬²":4259,"è¿Ļä¸ªæķħäºĭ":4260,"çļĦçī¹çĤ¹":4261,"ä¸įéľĢè¦ģ":4262,"çļĦæ½ľ":4263,"åıįæĺł":4264,"æ¶µçĽĸ":4265,"çļĦæ¶Ī":4266,"æĺİçĻ½äºĨ":4267,"æĪ´":4268,"ä¸¤ç§į":4269,"åįģå¹´":4270,"åĴĮä¸į":4271,"å°¿":4272,"äººåľ¨":4273,"æĲħ":4274,"è®¡ç®Ĺæľºç§ĳåŃ¦":4275,"è°ĥæŁ¥":4276,"ä¹±":4277,"çļĦæ¬":4278,"ç»ĻæĪĳæĥ³":4279,"ä»¥ä¸ĭæĺ¯æĪĳ":4280,"æĸĳ":4281,"å¿ĥæĢģ":4282,"è¿ĻäºĽéĹ®é¢ĺ":4283,"éĿ¢ä¸´çĿĢ":4284,"èī³":4285,"è¿ĲçĶ¨":4286,"åĪĨéħį":4287,"ç¡®è®¤":4288,"æĶ¶éĽĨ":4289,"æī¹":4290,"æĺ¯ä¸Ģé¡¹":4291,"çģ°":4292,"æĢĸ":4293,"è®¨è®ºçļĦä¸»é¢ĺ":4294,"çļĦçľĭ":4295,"èĬĤå¥ı":4296,"æııè¿°ä¸Ģä¸ĭ":4297,"è´¢åĬ¡":4298,"æłĳåı¶":4299,"åıĸå¾ĹäºĨ":4300,"ªæ°´":4301,"çļĦæĦıæĢĿ":4302,"è¯ķåĽ¾":4303,"ä¸¤äººçļĦå¯¹è¯ĿåĨħå®¹":4304,"ä¸ĢæĿ¯":4305,"çĶŁæĪĲä¸Ģé¦ĸåħ³äºİ":4306,"Ġå°ı":4307,"åı¯èĥ½ä¼ļå¯¼èĩ´":4308,"ä¼Ł":4309,"éĢļå¸¸æĮĩçļĦæĺ¯":4310,"éĿ¢ä¸Ĭåįĩ":4311,"éĩĮçļĦ":4312,"æ®µä¸¤äººçļĦå¯¹è¯ĿåĨħå®¹":4313,"åıĤä¸İèĢħçļĦ":4314,"çļĦæĽ":4315,"æĢķ":4316,"ç»Łè®¡":4317,"ç©Ĩ":4318,"å¤ĸæĺŁ":4319,"æĪĺäºī":4320,"åĮºåĿĹéĵ¾æĬĢæľ¯":4321,"åĨł":4322,"æľºåĻ¨ç¿»è¯ĳ":4323,"çļĦæ¯ı":4324,"éĻªä¼´":4325,"æĺ¯éĢļè¿ĩ":4326,"å¸®åĬ©åĮ»çĶŁ":4327,"ä¼łéĢĴ":4328,"æĤ¨åı¯ä»¥å°Ŀè¯ķ":4329,"202":4330,"è¿Ļå°Ĩ":4331,"æİĺ":4332,"ç®Ģæ´ģ":4333,"ä¸Ģéģĵ":4334,"éĢĤå½ĵçļĦ":4335,"ä¼Ļ":4336,"æ¼ł":4337,"ä½ĵçİ°äºĨ":4338,"çļĦç§ĳæĻ®æĸĩç«ł":4339,"çļĦæ±¡æŁĵ":4340,"ä¸ºäººç±»":4341,"è½¨":4342,"è°ĥèĬĤ":4343,"çļĦæĬĢèĥ½":4344,"âĦ":4345,"æª":4346,"æĪĲè¯Ń":4347,"æĭĽ":4348,"å®¢æľį":4349,"å¸¸å¸¸":4350,"æļĤ":4351,"éĵº":4352,"ä¸ĭéĻį":4353,"å¡ĳæĸĻæ±¡æŁĵ":4354,"ä¼¤å®³":4355,"âĦĥ":4356,"è¯·éĹ®æľīä»Ģä¹Ī":4357,"æĥľ":4358,"çļĦç±":4359,"ä»ĸåľ¨":4360,"åĮ»åŃ¦å½±åĥı":4361,"è¦ģæ³¨æĦı":4362,"èĭ±éĽĦ":4363,"ä¸Ģåı¥è¯Ŀ":4364,"èµ·æºĲ":4365,"æĽ´å¥½åľ°çĲĨè§£":4366,"çļĦåĲĮæĹ¶":4367,"ç§įæ¤į":4368,"æĲħæĭĮ":4369,"´èĿ¶":4370,"åħģ":4371,"ä¼ļå¯¼èĩ´":4372,"èĿ´èĿ¶":4373,"èĬĤçº¦èĥ½æºĲ":4374,"çļĦæķĪçİĩ":4375,"åºĦ":4376,"ä¾§":4377,"å¤ļæķ°":4378,"åı¦ä¸Ģ":4379,"åĭĥ":4380,"æĬ±æŃī":4381,"åħ¶ä¸ŃçļĦ":4382,"æ¸ħåĩī":4383,"è´¹çĶ¨":4384,"æıĲä¾ĽçĽ¸åºĶçļĦå¸®åĬ©":4385,"æĹ¶å°ļ":4386,"çº¤":4387,"æĦŁçŁ¥":4388,"æĺİæĺ¾":4389,"æĮĩåĩº":4390,"åı¯ä»¥å¸®åĬ©æĪĳä»¬":4391,"è®¾å®ļ":4392,"åĪ©çĽĬ":4393,"åĩĨç¡®æĢ§":4394,"ä½łæĥ³":4395,"åħ¬å¹³":4396,"æĬĢæľ¯çļĦåıĳå±ķ":4397,"è¿Ĳè¾ĵ":4398,"èıľåĵģ":4399,"é¢Ĩå¯¼":4400,"ç»ĦæĪĲéĥ¨åĪĨ":4401,"è´§å¸ģ":4402,"çļĦæĸ°":4403,"ä¸ĢåĪĩ":4404,"æĽ´æĸ°":4405,"ç±»åĪ«":4406,"ç¿ł":4407,"æĪĳæİ¨èįĲ":4408,"æŃ£éĿ¢":4409,"åĲĦåľ°":4410,"ä¹ĭå¤Ħ":4411,"è¿Ļä¸ªåı¥åŃĲ":4412,"å®īåħ¨åĴĮ":4413,"è¿ľå¤Ħ":4414,"æĦ¿æĦı":4415,"çļĦç¤¼":4416,"å¤ķ":4417,"å¤§åŀĭ":4418,"ä¹Ŀ":4419,"åĨĻçļĦ":4420,"è®©äººæĦŁåĪ°":4421,"çļĦæĦŁåıĹ":4422,"çļĦçľĭæ³ķ":4423,"èº«ä½ĵåĴĮ":4424,"éĢıæĺİ":4425,"çļĦæ°ĽåĽ´":4426,"èħĲ":4427,"èĩªçĦ¶èµĦæºĲ":4428,"ä¹Łèĥ½":4429,"å®ŀæĸ½":4430,"èĩªçĦ¶é£İåħī":4431,"æĤ¨æĥ³":4432,"è¯ģæį®":4433,"éŁµ":4434,"çī¹æĢ§":4435,"åıªèĥ½":4436,"åľŁåľ°":4437,"äººå·¥æĻºèĥ½åĴĮ":4438,"ç¯®":4439,"åıĤè§Ĥ":4440,"æĪĳä»¬åı¯ä»¥ä»İ":4441,"åģļå¥½":4442,"å²©":4443,"åĩĿ":4444,"éĿŀå¸¸æĦŁè°¢":4445,"é©±":4446,"ç¦»å¼Ģ":4447,"çļĦç¼ĸ":4448,"æĪĸç¼º":4449,"åĲįåı«":4450,"çĶŁåĳ½çļĦ":4451,"æĪĸè§ģè§£":4452,"æµ·å¹³éĿ¢ä¸Ĭåįĩ":4453,"æĺ¯ä¸Ģéĥ¨":4454,"å¯¹è¯ĿçļĦè¯¦ç»Ĩä¿¡æģ¯":4455,"åıĤä¸İèĢħçļĦèº«ä»½":4456,"çĲĨå¿µ":4457,"å¹½é»ĺ":4458,"æĪĳéľĢè¦ģæĤ¨æıĲä¾Ľåħ·ä½ĵçļĦå¯¹è¯ĿåĨħå®¹":4459,"éĹ®çŃĶ":4460,"çĶµåĻ¨":4461,"åĮħæĭ¬åıĤä¸İèĢħçļĦèº«ä»½":4462,"æ½º":4463,"çļĦç©ºæ°Ķ":4464,"è¯·åĪĨäº«å¯¹è¯ĿçļĦè¯¦ç»Ĩä¿¡æģ¯":4465,"è¿Ļæł·æĪĳæīįèĥ½åĪĨæŀĲå¯¹è¯Ŀ":4466,"ä¼ļæľī":4467,"æµ´":4468,"å¢¨":4469,"çŁ¥åĲį":4470,"çĹħäºº":4471,"ä¹ĭéĹ´çļĦåħ³ç³»":4472,"æľīä¸Ģåıª":4473,"çīĩåĪ»":4474,"è¿Ķ":4475,"å»ºè®®åĲĹ":4476,"ï¼ģ\"":4477,"Ġ6":4478,"åĮĸçŁ³":4479,"çļĦæłĳ":4480,"åį«æĺŁ":4481,"æıĲä¾ĽçĽ¸åºĶçļĦå¸®åĬ©æĪĸè§ģè§£":4482,"åħģè®¸":4483,"ä»ª":4484,"ç¾İå¦Ļ":4485,"åŃ¦æľ¯":4486,"è¡¨çİ°åĩº":4487,"ç©ºæ°Ķä¸Ń":4488,"åĽ¾çīĩ":4489,"æĤ¨å¸ĮæľĽ":4490,"å¿ĥåĴĮ":4491,"er":4492,"çļĦä¸ĢäºĽ":4493,"åĪĽéĢłåĬĽ":4494,"è¯·å°Ĩ":4495,"æ¸©é¦¨":4496,"è´Łè´£":4497,"æĪĳæĥ³è¦ģ":4498,"ä½łä¹Łåı¯ä»¥":4499,"åľ¨åĮ»çĸĹé¢ĨåŁŁ":4500,"Ġå¦Ĥæŀľ":4501,"åİĨç¨ĭ":4502,"åģ¥åº·åĴĮ":4503,"åĩºä¸Ģä¸ª":4504,"çİ°åľ¨è¯·ä½ł":4505,"çļĦåĪĽæĦı":4506,"åľºåĲĪ":4507,"åĴĮæķ°æį®":4508,"å¯¹ç¤¾ä¼ļ":4509,"ä»¥åıĬä»ĸä»¬ä¹ĭéĹ´çļĦ":4510,"èĭ¥":4511,"çļĦæĶ¹":4512,"æľºåĪ¶":4513,"æ¶Į":4514,"ä¿ĿæĬ¤åľ°çĲĥ":4515,"æĺŁæĺŁ":4516,"çļĦå£°éŁ³":4517,"éªĮè¯ģ":4518,"ä¸įæĸŃè¿ĽæŃ¥":4519,"å¼Ĥå¸¸":4520,"ç¼ĺ":4521,"éĿŀå¸¸æľī":4522,"çĳŁ":4523,"æľĢåĸľæ¬¢çļĦ":4524,"åĮ»éĻ¢":4525,"æĢ»çļĦæĿ¥è¯´":4526,"äº¤æµģåĨħå®¹":4527,"å°ıçļĦ":4528,"è¿ĻäºĽä¿¡æģ¯":4529,"åĲ¬åĪ°":4530,"åį±å®³":4531,"æĹĭå¾ĭ":4532,"ä»¥åıĬä»ĸä»¬ä¹ĭéĹ´çļĦäº¤æµģåĨħå®¹":4533,"ä½ĵç³»":4534,"åĲĪæ³ķ":4535,"éķ¿æĹ¶éĹ´":4536,"ç¢§":4537,"åįıåĬ©":4538,"æĪĲçĨŁ":4539,"åĽłä¸ºå®ĥä»¬":4540,"è®°å¾Ĺ":4541,"ä¼Ĺå¤ļ":4542,"æ»ļ":4543,"èĢĥè¯ķ":4544,"æĤ²":4545,"ä¾ĽåºĶ":4546,"åŃ¦ä¹łç¼ĸç¨ĭ":4547,"çļĦæĻ¯çĤ¹":4548,"èº«è¾¹":4549,"çĶŁæĪĲä¸Ģé¦ĸè¯Ĺ":4550,"èĩªåĬ¨é©¾é©¶æ±½è½¦":4551,"å¾Īé«ĺåħ´":4552,"åı¯ä»¥å¸®åĬ©ä½ł":4553,"çļĦæĻ®":4554,"ä¿¡ä»»":4555,"ä¸įåı¯æĪĸç¼º":4556,"ç©ºä¸Ń":4557,"èİ«":4558,"çļĦç±»":4559,"ç»½":4560,"ä½ĵéĩį":4561,"éļĶ":4562,"Ġä¸ºäºĨ":4563,"çļĦé«ĺ":4564,"åĨįæ¬¡":4565,"çİ°ä»£ç¤¾ä¼ļ":4566,"åĴĮå¹³":4567,"åıĺå¾Ĺè¶ĬæĿ¥è¶Ĭ":4568,"çļĦæ¼Ķ":4569,"è°ĥåĳ³":4570,"å°ĺ":4571,"å¥Ķ":4572,"ä¸ĵå®¶":4573,"åı¯ä»¥çĶ¨äºİ":4574,"ä¿¡ä»°":4575,"éļľç¢į":4576,"çĨĬçĮ«":4577,"æĺ¯ä¸į":4578,"åı¯ä»¥è¢«":4579,"çŃīäºİ":4580,"ä¸ĭéĽ¨":4581,"å®ĥåľ¨":4582,"è¯·æ³¨æĦı":4583,"ä¾£":4584,"ä¼łè¾¾":4585,"è¿Ļæł·åı¯ä»¥":4586,"è¯Ńè¨Ģæ¨¡åŀĭ":4587,"çļĦç¾İæĻ¯":4588,"ç´§å¼ł":4589,"è¸ı":4590,"æľīå®³":4591,"æıĲåīį":4592,"æģ©":4593,"äººä»¬åı¯ä»¥":4594,"è®©æĪĳä»¬ä¸Ģèµ·":4595,"çĩķ":4596,"çļĦæ¸©åº¦":4597,"çļĦåľºæĻ¯":4598,"äº¿":4599,"çľ¼çĿĽ":4600,"éľĢè¦ģæ³¨æĦıçļĦæĺ¯":4601,"æĽ´é«ĺ":4602,"å¸®å¿Ļ":4603,"æ¡£":4604,"èħ»":4605,"åĢĴåħ¥":4606,"æĺ¯è°ģ":4607,"è¿Ļæľ¬ä¹¦":4608,"éĺ³åħīæĺİåªļ":4609,"çĥģ":4610,"å°±ä¼ļ":4611,"ä¸ĭçļĦ":4612,"ä»Ģä¹Īæł·çļĦ":4613,"èı²":4614,"ä¼ŀ":4615,"åŃĲéĩĮ":4616,"éķ¿çļĦ":4617,"åĽŀå®¶":4618,"åħ´å¥ĭ":4619,"çļĦæķĻèĤ²":4620,"¬éĹ´":4621,"Ġå¸ĮæľĽ":4622,"çĶŁæĪĲçļĦ":4623,"åºŁå¼ĥçī©":4624,"ä¸įåĨį":4625,"èıľèĤ´":4626,"æĦĪ":4627,"åĮºåĪ«":4628,"åıĹæ¬¢è¿İçļĦ":4629,"ä¸ģ":4630,"çļĦçĽ®æłĩ":4631,"ç¢İ":4632,"å¦ĤæŀľæĤ¨éľĢè¦ģ":4633,"ä½łåĸľæ¬¢":4634,"æĺ¯ä¸Ģä½į":4635,"æľĪçĲĥ":4636,"éŃĤ":4637,"çĶŁæĪĲä¸Ģä¸ªæľīåħ³":4638,"åŃĲåĴĮ":4639,"åľºæīĢ":4640,"çľŁçļĦ":4641,"éĹªçĥģ":4642,"ä¸ĢçĤ¹":4643,"é¦Ļæ°Ķ":4644,"äººå·¥æĻºèĥ½å·²ç»ı":4645,"ä¼łç»ŁçļĦ":4646,"åĬŀåħ¬":4647,"åħ¬éĩĮ":4648,"ç¿Ķ":4649,"åĩ¡":4650,"éģŃ":4651,"åį°è±¡":4652,"å½ĵæĪĳä»¬":4653,"æĿĥåĪ©":4654,"çĶŁæĪĲä¸Ģé¦ĸè¯ĹæŃĮ":4655,"åĴĮäººç±»":4656,"å¤ļå½©":4657,"èĤ¯":4658,"éĽ¾":4659,"éĿ©åĳ½":4660,"çļĦæķ£":4661,"æ¸©æŁĶ":4662,"åºĶè¯¥æĺ¯":4663,"åĵªä¸ªåŁİå¸Ĥ":4664,"éĩįè¦ģçļĦä½ľçĶ¨":4665,"æħ¢æħ¢":4666,"èĭ±åĽ½":4667,"æľīæīĢå¸®åĬ©":4668,"åĽĽä¸ª":4669,"çļĦçĬ¶":4670,"æĶ»åĩ»":4671,"ä¹ĭä¸Ń":4672,"çĻ½èī²":4673,"æĹłæķ°":4674,"ä¸ºæĪĳä»¬":4675,"ä»¥ä¸ĭåĩł":4676,"æ³ī":4677,"ä¸Ģä»¶":4678,"å¤©ä½ĵ":4679,"åįķä½į":4680,"æłĩå¿Ĺ":4681,"å·¥èīº":4682,"çİ©åħ·":4683,"çļĦæ²Ļ":4684,"æĹ¶åĪ»":4685,"æ¸¸å®¢":4686,"ä½łåı¯ä»¥èĢĥèĻĳ":4687,"åĲ¬è¯´":4688,"æ°§æ°Ķ":4689,"çļĦç§ĳæĬĢ":4690,"æ·±å¤Ħ":4691,"é²¸":4692,"äººå·¥æĻºèĥ½åľ¨åĮ»çĸĹé¢ĨåŁŁ":4693,"éªĳèĩªè¡Įè½¦":4694,"500":4695,"ç§ĺå¯Ĩ":4696,"å¤§å¤ļæķ°":4697,"é»ĳèī²":4698,"çªģåĩº":4699,"çļĦä¸į":4700,"åľĪ":4701,"ç»ĵæĿŁ":4702,"éĩįéĩı":4703,"çģ«æĺŁ":4704,"çī¹åĪ«æĺ¯":4705,"łæª":4706,"ç»µ":4707,"äººä»¬çļĦçĶŁæ´»":4708,"ä»¥ä¸ĭæĺ¯ä¸Ģæ®µä¸¤äººçļĦå¯¹è¯ĿåĨħå®¹":4709,"łæª¬":4710,"è¿Ļåı¯èĥ½":4711,"éĢłæĪĲäºĨ":4712,"ä»Ļ":4713,"ä¼¸":4714,"æĻ®éĢļ":4715,"çļĦæµ·æ»©":4716,"çļĦçŁŃæĸĩ":4717,"Ġåħ¶æ¬¡":4718,"å¼Ģå±ķ":4719,"æĳĨ":4720,"åĨ¬å¤©":4721,"èį«":4722,"æ²¡æľīæıĲä¾Ľ":4723,"ç»©":4724,"ç§Ł":4725,"æĶ¿åºľåĴĮ":4726,"çıįæĥľ":4727,"å¤Ħäºİ":4728,"åįĩé«ĺ":4729,"åĩıè½»åİĭåĬĽ":4730,"ä»¥åħ¶":4731,"äººå£«":4732,"å¼¥":4733,"è·¯çº¿":4734,"åĲĪåĲĮ":4735,"çĶµè¯Ŀ":4736,"æĬĢæľ¯åĴĮ":4737,"å¯Ĩåº¦":4738,"åĨĽäºĭ":4739,"è¿ĻæĦıåĳ³çĿĢ":4740,"èĩªä¿¡":4741,"åĬłä¸Ĭ":4742,"èĢĮå¼Ĥ":4743,"æľīæķĪçļĦ":4744,"å½ĵæĹ¶":4745,"æ°´åĴĮ":4746,"çĶŁæĢģå¹³è¡¡":4747,"ç¼ºçĤ¹":4748,"åĴĮæĥħæĦŁ":4749,"æľīçĤ¹":4750,"éļıçĿĢæĬĢæľ¯çļĦ":4751,"éģĵè·¯":4752,"çĶ»éĿ¢":4753,"æģĲæĢĸ":4754,"åī¯":4755,"éļ¾å¿ĺ":4756,"çĶŁåĬ¨":4757,"è®¾è®¡ä¸Ģä¸ª":4758,"çļĦå¥½å¤Ħ":4759,"åĪĽå»ºä¸Ģä¸ª":4760,"è¯·åĽŀçŃĶ":4761,"é¸Łç±»":4762,"ä¸įä»ħä»ħæĺ¯":4763,"çļĦåĬĽéĩı":4764,"æº¯":4765,"ä¼łè¯´":4766,"çº¦ä¸º":4767,"å¹´è½»äºº":4768,"åıĬåħ¶":4769,"æĪĲæŀľ":4770,"åŁİå¸ĤçļĦ":4771,"æµĭéĩı":4772,"æĺ¨":4773,"å±ķçİ°äºĨ":4774,"éĢļå¸¸åľ¨":4775,"è¾ĥä¸º":4776,"å±ħæ°ĳ":4777,"æĹģ":4778,"ç²ĺ":4779,"çļĦåħ³ç³»":4780,"çļĦæīĢ":4781,"èĥľåľ°":4782,"ä¸Ģå®ļçļĦ":4783,"çļĦæ¨":4784,"èµ¢":4785,"çĭĤ":4786,"æĶ¿æ²»":4787,"æĹ©ä¸Ĭ":4788,"åŁ¹è®Ń":4789,"çº¤ç»´":4790,"ĠæĪĳä»¬":4791,"çļĦæĹ¥":4792,"è¿«":4793,"åĴĮåĪĨæŀĲ":4794,"éŁ§":4795,"æĪĸèĢħæĺ¯":4796,"æł¹æį®èĩªå·±çļĦ":4797,"èľľèľĤ":4798,"åĴĮæĪĳ":4799,"å¤±ä¸ļ":4800,"Ġä½ł":4801,"çļĦæľªæĿ¥":4802,"æĤ¨åı¯ä»¥èĢĥèĻĳ":4803,"é¸¡èĤī":4804,"éľĢè¦ģæĪĳä»¬":4805,"ä¸ŃåĽ½çļĦ":4806,"ç¼ĸåĨĻ":4807,"å¡ĳæĸĻåĪ¶åĵģ":4808,"çļĦæŃĮæĽ²":4809,"èŃ¦å¯Ł":4810,"æľīæľº":4811,"åīª":4812,"éĩıåŃĲåĬĽåŃ¦":4813,"æĿ¥åĩıå°ĳ":4814,"åħ½":4815,"å¼ºå¤§":4816,"å¦Ĥä½ķåľ¨":4817,"çļĦçĭ¬":4818,"ç»½æĶ¾":4819,"å¾Īå¥½çļĦ":4820,"åĢ¡":4821,"æ³Ħ":4822,"çºł":4823,"æĥħå¢ĥ":4824,"ç»ĻæĪĳä»¬":4825,"ç¥ŀå¥ĩ":4826,"æ¢ħ":4827,"å¸®æĪĳæĥ³ä¸ĢäºĽ":4828,"æĺ¯åĵª":4829,"åı¯èĥ½åľ¨":4830,"çļĦæķ°åŃ¦":4831,"éĻ·":4832,"å¼Ģå¿ĥ":4833,"æķ´ä½ĵ":4834,"ä¸İåħ¶ä»ĸ":4835,"ç»Īäºİ":4836,"èĴľ":4837,"åŃ©åŃĲä»¬":4838,"æŁ¥ä¸Ģä¸ĭ":4839,"é£ŀæľº":4840,"çĶ·æĢ§":4841,"çļĦäº§åĵģ":4842,"èĬĿ":4843,"çĩĥçĥ§":4844,"åı¯ä»¥æıĲä¾Ľ":4845,"çĭ®":4846,"ç»ĻæĪĳæİ¨èįĲ":4847,"èĥ¡":4848,"ä¼ĺç¾İ":4849,"åĩıåİĭ":4850,"èĩªçĦ¶ä¿ĿæĬ¤":4851,"çĮª":4852,"åİŁå§ĭ":4853,"çļĦè´¨éĩı":4854,"èµĭ":4855,"æİ¥çĿĢ":4856,"äººéĻħ":4857,"ä¼ĺæĥł":4858,"éĢĶå¾Ħ":4859,"ç£¨":4860,"æŃ£å¼ı":4861,"å¯¿åĳ½":4862,"çļĦæĶ¯æĮģ":4863,"åĪĽæĸ°çļĦ":4864,"å¹´è½»çļĦ":4865,"å¯¼èĩ´äºĨ":4866,"èĤł":4867,"ä¸ĭåĪĹ":4868,"Ġè¿Ļä¸ª":4869,"å±ı":4870,"å¸¦çĿĢ":4871,"èĬ±é¦Ļ":4872,"è®¸å¤ļäºº":4873,"çĳŀ":4874,"æĹħéĢĶ":4875,"çĥŃæĥħ":4876,"éľ²èĲ¥":4877,"è¿Ļåıª":4878,"åŃķ":4879,"åĳĪçİ°åĩº":4880,"çĽ®çļĦæĺ¯":4881,"è¿Ļæĺ¯åĽłä¸º":4882,"ç¼ºä¹ı":4883,"æ°¢":4884,"å¯Įæľī":4885,"çļĦæĢģ":4886,"çļĦæľºä¼ļ":4887,"æķ¬":4888,"å®ĮåĸĦ":4889,"æĤ¨çļĦéĹ®é¢ĺ":4890,"å·²æĪĲä¸º":4891,"çĽĪ":4892,"æ¯Ķåĸ»":4893,"åķĨåĬ¡":4894,"åĴĮé«ĺ":4895,"åĴĮåģ¥åº·":4896,"çļĦç³":4897,"è¿ĩå¤ļ":4898,"äººå·¥æĻºèĥ½æĺ¯ä¸Ģç§į":4899,"è¯¦ç»ĨçļĦ":4900,"åĶ¯ä¸Ģ":4901,"èĦĨ":4902,"è£Ĥ":4903,"å¾ĴæŃ¥":4904,"æ£ĭ":4905,"æī¿æĭħ":4906,"è½¬åĮĸä¸º":4907,"çļĦå¼Ģå¤´":4908,"å¿ĥèĦı":4909,"åİĨåı²ä¸Ĭ":4910,"åĽŀçŃĶéĹ®é¢ĺ":4911,"è·ŁæĪĳ":4912,"çĶ³è¯·":4913,"è¾ī":4914,"èĬ¬":4915,"èįĴ":4916,"åī§æĥħ":4917,"ä¸Ģä¸ªåħ³äºİ":4918,"æĴĳ":4919,"æĺİå¤©çļĦå¤©æ°Ķ":4920,"çļĦæķĪæŀľ":4921,"å¤§è§Ħæ¨¡":4922,"çļĦå½±åĵįçļĦæĸĩç«ł":4923,"è¢«è®¤ä¸ºæĺ¯":4924,"å¼ºåĮĸ":4925,"èİī":4926,"æīĢæľīçļĦ":4927,"è¿ĺä¼ļ":4928,"çĽ¸éģĩ":4929,"æĽ´æľī":4930,"çļĦåĲįç§°":4931,"å¤§å¤§":4932,"éļ¾é¢ĺ":4933,"éĺ²æĻĴ":4934,"an":4935,"ä¸Ńåįİ":4936,"è¿Ľç¨ĭ":4937,"æĪĳæĥ³äºĨè§£":4938,"å¿ĥçĲĨåŃ¦":4939,"ä¸²":4940,"åĴĮçĲĨè§£":4941,"çĭ¸":4942,"æķĻåŃ¦":4943,"ä¼łç»ŁæĸĩåĮĸ":4944,"çľĭçĶµå½±":4945,"ä¸Ģä¸ĭè¿Ļç¯ĩæĸĩç«ł":4946,"æľĪåħī":4947,"æĬķåħ¥":4948,"é¢ĳçİĩ":4949,"è®©æĪĳæĥ³":4950,"æ¡ĥ":4951,"çļĦç»ĵæŀľ":4952,"å¯¸":4953,"ä¸įå®¢æ°Ķ":4954,"çŃīå¤ļç§į":4955,"æ¿ĢåĬ±":4956,"åĮ¹":4957,"åıĳçİ°äºĨ":4958,"ç©ºæ°Ķæ±¡æŁĵ":4959,"æİ¢è®¨äºĨ":4960,"éĢļä¿¡":4961,"æŁłæª¬":4962,"æĬĳ":4963,"æĺİäº®":4964,"ar":4965,"ä¸ĬäºĨ":4966,"éģĹä¼ł":4967,"å¤ļäºĳ":4968,"æľºç¥¨":4969,"æĤ¬çĸĳ":4970,"ç¢³æİĴæĶ¾":4971,"åĨ¬åŃ£":4972,"ä»Ķ":4973,"æī«":4974,"å°ıçĮ«":4975,"å®īéĿĻ":4976,"Ĳçĭ¸":4977,"ä¿®å¤į":4978,"æł¸å¿ĥ":4979,"âĢ¦âĢ¦":4980,"åĪ·":4981,"ç½©":4982,"å®īè£ħ":4983,"æıĲé«ĺäºĨ":4984,"éĢļå¸¸éľĢè¦ģ":4985,"æİĴåºı":4986,"å®ĿèĹı":4987,"å®¾":4988,"åį§":4989,"æĺ¯ä¸Ģå¹´":4990,"æĶ¹åıĺäºĨ":4991,"èį¯çī©çłĶåıĳ":4992,"èĨľ":4993,"çļĦè¯Ĺåı¥":4994,"çļĦæĮĩå¯¼":4995,"æĿ¥æıĲé«ĺ":4996,"ä¸ĸçķĮçļĦ":4997,"æĢĿå¿µ":4998,"éĩİçĶŁåĬ¨çī©":4999,"åħļ":5000,"æĻ¶":5001,"åľ°ä½į":5002,"åĬłçĥŃ":5003,"èĩªçĦ¶çķĮ":5004,"å±±åĮº":5005,"è¿½æº¯":5006,"çļĦç¤¼çī©":5007,"äººæĢ§":5008,"åĨ²çªģ":5009,"ä¸įè¶³":5010,"åħĪè¿Ľ":5011,"æľīæĹ¶":5012,"å¤ĩåıĹ":5013,"éľĢè¦ģå¸®åĬ©":5014,"åĪĽä¸ļ":5015,"èĴĻ":5016,"çļĦé¥®é£Ł":5017,"ä½İç¢³":5018,"åĪļåĪļ":5019,"è¯·ç¨įçŃīçīĩåĪ»":5020,"åĴĮè¡Įä¸º":5021,"å¾Īä¸įéĶĻ":5022,"äºļæ´²":5023,"å¤įæĿĤçļĦ":5024,"çļĦæŃ¥":5025,"æıĴ":5026,"æİĪ":5027,"åĲ¯åıĳ":5028,"äººå·¥æĻºèĥ½åºĶçĶ¨":5029,"äººä»¬åľ¨":5030,"å±Ĥæ¬¡":5031,"æľīåħ¶ä»ĸ":5032,"ä½łåľ¨":5033,"ç»ĻäºĪ":5034,"æĸ°äº§åĵģ":5035,"èĤ¡ç¥¨":5036,"æıŃ":5037,"çĬ¯ç½ª":5038,"ä¼Ļä¼´":5039,"çļĦä½ľçĶ¨":5040,"æĢ§éĹ®é¢ĺ":5041,"è¯Ńå¢ĥ":5042,"å¯ĤéĿĻ":5043,"çļĦæŁĲ":5044,"çļĦç®Ģ":5045,"çļĦå¤ĸ":5046,"ä¸Ĭè¿°":5047,"å®ļå¾ĭ":5048,"éĢļå¸¸æĺ¯":5049,"è¿ĻäºĽæĬĢæľ¯":5050,"è¢«è§Ĩä¸º":5051,"åĨĻä¸Ģç¯ĩåħ³äºİäººå·¥æĻºèĥ½çļĦæĸĩç«ł":5052,"åŃĻ":5053,"æľīåħ³äºİ":5054,"éĢĤåĲĪèĩªå·±çļĦ":5055,"èµĦæĸĻ":5056,"çİ¯å¢ĥä¿ĿæĬ¤çļĦæĸĩç«ł":5057,"æĸľ":5058,"äºĴçĽ¸":5059,"ç©·":5060,"å®¿":5061,"æŁĶè½¯":5062,"çī©æµģ":5063,"æĵİ":5064,"ä»¥ä¸ĭåĩłä¸ªæĸ¹éĿ¢":5065,"åĽŀåĪ°":5066,"åºŁçī©":5067,"åģ¥åº·é¥®é£ŁçļĦæĸĩç«ł":5068,"åĴĮæľįåĬ¡":5069,"æĬĵ":5070,"çļĦçģ«":5071,"æµĵéĥģ":5072,"åŃĶ":5073,"çĶµåĬ¨":5074,"åĪ¶åº¦":5075,"ç¼ĵè§£åİĭåĬĽ":5076,"çļĦæ¢¦æĥ³":5077,"åĴĮçİ¯å¢ĥ":5078,"æĪĳèĥ½":5079,"çļĦæ¤":5080,"å¤©çĦ¶":5081,"å¾Īæľī":5082,"é¼»":5083,"åĴĮæľĭåıĭ":5084,"æĽ´é«ĺæķĪ":5085,"åĲİçļĦ":5086,"æ®ĭ":5087,"æļĳ":5088,"å¼ķæĵİ":5089,"æ°ĳæĹı":5090,"ä»¥æĿ¥":5091,"ä¸įå¤ª":5092,"ä¸įç¡®å®ļ":5093,"æĮĸ":5094,"æĹħæ¸¸æĻ¯çĤ¹":5095,"çļĦçĬ¶æĢģ":5096,"é³":5097,"ä»İä½ł":5098,"åĽ½åĨħ":5099,"åĮ»çĸĹè¡Įä¸ļ":5100,"è¹Ī":5101,"çļĦç¼ĸç¨ĭ":5102,"æľŁæľĽ":5103,"25":5104,"å¤·":5105,"å¼ķå¯¼":5106,"åı¤åħ¸":5107,"åģļæ³ķ":5108,"çļĦæķ°éĩı":5109,"ä»Ĭå¤©çļĦå¤©æ°Ķ":5110,"æĭĤéĿ¢":5111,"èĬĤçº¦çĶ¨æ°´":5112,"çļĦæĻ¯èī²":5113,"ä¸Ģé¡¹":5114,"å¼ºåº¦":5115,"æķ°æį®ä¸Ń":5116,"èıľåįķ":5117,"æķ¦":5118,"è¾ĥé«ĺ":5119,"å¥½çľĭçļĦçĶµå½±":5120,"ä»¥åıĬå¯¹":5121,"ç»ĵè®º":5122,"é¢Ħè®¡":5123,"å¦Ĩ":5124,"çĽ¸åºĶçļĦ":5125,"å¦ĩ":5126,"ä¸įèī¯":5127,"çĩ¥":5128,"åĬłåī§":5129,"çĽ¸åħ³ä¿¡æģ¯":5130,"èĥ½åĬĽåĴĮ":5131,"åĩīçĪ½":5132,"thon":5133,"æĪĳæŃ£åľ¨":5134,"çĸ¾çĹħçļĦ":5135,"çīĽèĤī":5136,"éģĹäº§":5137,"çļĦçĮ«":5138,"è¡¨æł¼":5139,"çļĦåħ³éĶ®è¯į":5140,"çĥ¦":5141,"åħ¶ä¸ŃæľĢ":5142,"èĪŀè¹Ī":5143,"ython":5144,"åĴĮç®¡çĲĨ":5145,"å¥½å¥ĩ":5146,"äººå·¥æĻºèĥ½åıĳå±ķ":5147,"æķħäºĭæĥħèĬĤ":5148,"æĸĩæľ¬åĨħå®¹":5149,"åįıä½ľ":5150,"å¤®":5151,"æĺ¯åħ³äºİ":5152,"çĽĴ":5153,"å¹³éĿĻ":5154,"å¤±åİ»":5155,"çİ¯ä¿ĿçļĦç§ĳæĻ®æĸĩç«ł":5156,"çļĦæ¨¡":5157,"æ»¨":5158,"æ¶Ĥ":5159,"çĶµè§Ĩåī§":5160,"å¦Ĥä»Ĭ":5161,"åŃ¦ç§ĳ":5162,"æĩĤ":5163,"æĽ´å¥½åľ°äºĨè§£":5164,"çİ°çĬ¶":5165,"ä¸īç§į":5166,"æĹĭè½¬":5167,"ä¸ĸçķĮä¸Ĭ":5168,"æııåĨĻ":5169,"ç«ĭåį³":5170,"éľĢè¦ģæĪĳ":5171,"å·¥ä½ľæķĪçİĩ":5172,"åĪĽä½ľä¸Ģé¦ĸ":5173,"çļĦæĢĿèĢĥ":5174,"è¿Ŀåıį":5175,"æľºåĻ¨åŃ¦ä¹łç®Ĺæ³ķ":5176,"äºĳè®¡ç®Ĺ":5177,"è¶ħè¶Ĭ":5178,"çļĦæĸĩåĮĸ":5179,"ä»¥èİ·åıĸ":5180,"å®ĥå°Ĩ":5181,"å®ļä½į":5182,"æ¾Ī":5183,"éĢĿ":5184,"æłĳæľ¨":5185,"èİ·å¾ĹäºĨ":5186,"ç¬¦åı·":5187,"å®ŀçĶ¨":5188,"çĽ¸äºĴä½ľçĶ¨":5189,"æŀ«åı¶":5190,"çļĦæīĢæľī":5191,"åĬĽäºİ":5192,"çļĦæĥħç»ª":5193,"éĢĬ":5194,"åı¯ä»¥ä¸º":5195,"å°ıéķĩ":5196,"åĩıèĤ¥":5197,"æľīè¶£çļĦæķħäºĭ":5198,"å¥½äºĨ":5199,"æĪĳä»¬å°Ĩ":5200,"æııè¿°äºĨ":5201,"ĠA":5202,"çĲĨæĥ³":5203,"æĹ©æľŁ":5204,"æ²īæµ¸":5205,"16":5206,"æĶ¾å¼ĥ":5207,"ç§¯æŀģåıĤä¸İ":5208,"å¸®æĪĳæĥ³ä¸Ģä¸ª":5209,"æ¸ħæĻ¨":5210,"æĢ§è´¨":5211,"çĶŁæ´»è´¨éĩı":5212,"çļĦæµ·æ´ĭ":5213,"çļĦè¯Ńè¨Ģ":5214,"ç«¹":5215,"æĦŁåĴĮ":5216,"ä»£æĽ¿":5217,"æĸ°åŀĭ":5218,"å¢ŀæ·»":5219,"Python":5220,"çĶ¨éĢĶ":5221,"éĤĢ":5222,"åĴĮèµĦæºĲ":5223,"è¾Ĳ":5224,"ä¸İäººç±»":5225,"é¤Ĳé¦Ĩ":5226,"çļĦæĢĿç»´":5227,"æµħ":5228,"æīĢè¿°":5229,"å½ĵä»Ĭç¤¾ä¼ļ":5230,"äººå·¥æĻºèĥ½åľ¨åĮ»çĸĹé¢ĨåŁŁçļĦåºĶçĶ¨":5231,"ing":5232,"äºĭæķħ":5233,"ç»ĻæĪĳè®²ä¸Ģä¸ª":5234,"....":5235,"ç¿»è¯ĳæĪĲä¸Ńæĸĩ":5236,"è¯·éļıæĹ¶":5237,"æľªæĿ¥åŁİå¸Ĥ":5238,"ä¸¾åĬŀ":5239,"çŁ¿çī©è´¨":5240,"åĪĨæĶ¯":5241,"æľªæĿ¥çļĦåıĳå±ķ":5242,"æĻ´æľĹ":5243,"æ¸Ĳæ¸Ĳ":5244,"èįīèİĵ":5245,"æ²³æµģ":5246,"äºĽä»Ģä¹Ī":5247,"åĢį":5248,"åľ°çĲĥä¸Ĭ":5249,"æľīçĽĬ":5250,"çļĦç®Ĺ":5251,"åĢ¾åĲĳ":5252,"åħ³éĶ®ä¿¡æģ¯":5253,"å¯¹è±¡":5254,"èĢĥèĻĳåĪ°":5255,"è·³è·ĥ":5256,"æľĢå¤§çļĦ":5257,"åĪ¶æĪĲ":5258,"çħİ":5259,"æĬµ":5260,"éĹ®é¢ĺæĪĸ":5261,"ä»¥ä¸ĭåı¥åŃĲ":5262,"åĲ¬éŁ³ä¹Ĳ":5263,"è¾Ĳå°Ħ":5264,"åĴĮä½¿çĶ¨":5265,"æĻ¯èī²":5266,"æŃ¥è¡Į":5267,"åģıè§ģ":5268,"ä¼ĳéĹ²":5269,"æĪĳè¦ģ":5270,"æľįè£ħ":5271,"æĤ¨åı¯ä»¥åľ¨":5272,"å¼¥æ¼«":5273,"æ°ĽåĽ´":5274,"èĬ±æľµ":5275,"ä¸īè§Ĵ":5276,"ä¸Ģå¹´":5277,"èĥ½æıĲä¾Ľ":5278,"åŀĤ":5279,"åŃĹæ¯į":5280,"çĬ¹":5281,"è¿Ļæ¬¾":5282,"åįľ":5283,"æľªæĿ¥ç§ĳæĬĢ":5284,"è§Ĥçľĭ":5285,"ĠB":5286,"åĬłå·¥":5287,"èĮ«":5288,"åĶ¤":5289,"æ²Ļæ»©ä¸Ĭ":5290,"åħ³éĹŃ":5291,"éĿŀæ³ķ":5292,"å¯ĴåĨ·":5293,"ä¼ļåľ¨":5294,"åģ·":5295,"è®©è®¡ç®Ĺæľº":5296,"æĴŀ":5297,"çŁŃè¯Ń":5298,"ä¼¯":5299,"è¡ĮçļĦ":5300,"æ¯ıæ¬¡":5301,"åĽ¾ä¹¦":5302,"æıĲç¤º":5303,"ä¸ĭåįĪ":5304,"å¤§è±¡":5305,"è¡¨è¿°":5306,"çħ§äº®":5307,"åĴĮå°ı":5308,"çĶŁæĪĲä¸Ģç¯ĩåħ³äºİ":5309,"å¤ıå¨ģ":5310,"çĭ¬èĩª":5311,"ç´§æĢ¥":5312,"æī©å±ķ":5313,"å¤ıå¨ģå¤·":5314,"éĻĮ":5315,"éĩĳé»Ħ":5316,"è¶ĬæĿ¥è¶Ĭå¹¿æ³Ľ":5317,"çĶŁçī©å¤ļæł·æĢ§":5318,"çº¿ä¸Ĭ":5319,"ä½ľå®¶":5320,"çĽ¸åıį":5321,"åĲİæŀľ":5322,"æº¶":5323,"åŃĹçļĦ":5324,"ï¼īãĢģ":5325,"æ¸ħæ´ģèĥ½æºĲ":5326,"è¿Ľè¡ĮåĪĨç±»":5327,"å½¢æĢģ":5328,"èĩ´åĬĽäºİ":5329,"çĸĳéĹ®":5330,"å¯¹åºĶ":5331,"æľĢè¿ĳçļĦ":5332,"èķ´":5333,"è´·":5334,"èĲ¥éĢł":5335,"åĪĢ":5336,"ä¼Ĭ":5337,"å®ĥä¸įä»ħ":5338,"ç»Ļäºº":5339,"æ¨¡ä»¿":5340,"ç¿°":5341,"æħİ":5342,"å¤§èĩªçĦ¶çļĦ":5343,"åĪ¶éĢłä¸ļ":5344,"èĻİ":5345,"å¼ºå¤§çļĦ":5346,"çļĦæµª":5347,"å¿ĺè®°":5348,"1000":5349,"æĺ¯éĿŀå¸¸":5350,"ä¸»è¦ģè§ĤçĤ¹":5351,"åıĳéĢģ":5352,"å®Įç¾İ":5353,"çļĦå¤ľæĻļ":5354,"å¯¹å¾ħ":5355,"ç¨¿":5356,"èģĺ":5357,"ä»ĸä»¬åľ¨":5358,"æĽ¼":5359,"éĢĲæŃ¥":5360,"åľ¨è®¸å¤ļ":5361,"ç§¯æŀģçļĦ":5362,"æĺ¾å¾Ĺ":5363,"çļĦçĤ¹":5364,"å¤ķéĺ³":5365,"æĺ¯ä¸ª":5366,"çļĦæĶ¿":5367,"çļĦæķ£æĸĩ":5368,"çļĦæľįåĬ¡":5369,"çĶŁæĪĲä¸Ģä¸ªæııè¿°":5370,"æº¢":5371,"çļĦæĳĺ":5372,"åĮĸçŁ³çĩĥæĸĻ":5373,"å®¶æĹı":5374,"ç»¿æłĳ":5375,"ç¬¬ä¸Ģä¸ª":5376,"å®ŀä½ĵ":5377,"å½¢çļĦ":5378,"å·²ç»ıæĪĲä¸ºäºĨ":5379,"çº¹":5380,"å¼Ģè½¦":5381,"ti":5382,"çļĦç´":5383,"ä»£è°¢":5384,"è£ģ":5385,"å§¿åĬ¿":5386,"åľ¨éĩĳèŀį":5387,"åįĹæŀģ":5388,"éĶģ":5389,"çº¢æ¥¼":5390,"èĢģé¼ł":5391,"èĨĢ":5392,"ä¼Ĳ":5393,"åľ°éľĩ":5394,"çĸ¼":5395,"éĿŀæ´²":5396,"äººä»¬å¯¹":5397,"çļĦæĬķ":5398,"ä½łèĥ½ä¸įèĥ½":5399,"çļĦæĺŁ":5400,"AP":5401,"åĴĮåŃ¦ä¹ł":5402,"æ°´åĮĸåĲĪçī©":5403,"å£ģ":5404,"äººå·¥æĻºèĥ½åľ¨åĮ»çĸĹè¡Įä¸ļ":5405,"é¡ºåºı":5406,"å¸¦æĿ¥æĽ´å¤ļçļĦ":5407,"æ¢°":5408,"å¥ĩæĢª":5409,"é«ĺçļĦå±±å³°":5410,"çļĦèĩªçĦ¶":5411,"çļĦçĻ":5412,"ä¸ºæĤ¨æıĲä¾Ľ":5413,"çļĦæĢģåº¦":5414,"çļĦæĳĺè¦ģ":5415,"æİ¨è¿Ľ":5416,"åģļä¸ĢäºĽ":5417,"ç½ĳä¸Ĭ":5418,"æ°¸æģĴ":5419,"ä»İåīį":5420,"åıįå°Ħ":5421,"çĳ°":5422,"åħ´è¶£çĪ±å¥½":5423,"æĭħå¿ĥ":5424,"çļĦç®Ĺæ³ķ":5425,"Ġä»¥ä¸Ĭ":5426,"æİ¥è¿ĳ":5427,"ç»Ŀåı¥":5428,"åĴĮç»ıæµİ":5429,"è°¨":5430,"æĴĴ":5431,"æ¨¡æĭŁäººç±»æĻºèĥ½":5432,"å¾®ç¬ĳ":5433,"å±ħä½ı":5434,"ä¸ĵæ³¨äºİ":5435,"æĪĳå°±èĥ½":5436,"çļĦæ¡":5437,"æĪĳä»¬åı¯ä»¥éĢļè¿ĩ":5438,"ä¸ĵä¸ļçļĦ":5439,"ç»¼ä¸Ĭ":5440,"çľŁæŃ£çļĦ":5441,"çļĦåĬŁèĥ½":5442,"çİ¯å¢ĥä¸Ń":5443,"æ¸ħæ¾Ī":5444,"æĽ´æĺ¯":5445,"éĩįè¦ģä½ľçĶ¨":5446,"åıĭå¥½":5447,"åľ¨åĮ»åŃ¦":5448,"çĭĲçĭ¸":5449,"çº¦ç¿°":5450,"æĵ¦":5451,"æģĲé¾Ļ":5452,"åıł":5453,"ä¸ºä¸»":5454,"ä½łçŁ¥éģĵ":5455,"åĪĨè§£":5456,"èĤīç±»":5457,"æĤ¨çļĦéľĢæ±Ĥ":5458,"æ¼Ķåĳĺ":5459,"æŃ»äº¡":5460,"åı¤èĢģçļĦ":5461,"ä¼ı":5462,"ä¸Ģä¸ªå°ı":5463,"ç»Ĩèħ»":5464,"ä½ľä¸ºAI":5465,"èħ¾":5466,"æ´ĭèĳ±":5467,"èķī":5468,"çļĦä¸įæĸŃ":5469,"æĹ±":5470,"éĢĨ":5471,"çĥĺ":5472,"åħ¬åĽŃéĩĮ":5473,"çļĦçĹħ":5474,"çļĦæĥħèĬĤ":5475,"æ²Ļæĭī":5476,"è¯ŀ":5477,"äºĨå¾Īå¤ļ":5478,"æĦģ":5479,"çĽĹ":5480,"æ¡Ĩ":5481,"åĮĹæŀģ":5482,"ç»Ļåĩºä¸Ģä¸ª":5483,"æĸ°éĹ»æĬ¥éģĵ":5484,"åħ¬åħ±äº¤éĢļå·¥åħ·":5485,"é¢Ŀå¤ĸ":5486,"ä¹Łå¸¦æĿ¥äºĨ":5487,"éĻĮçĶŁ":5488,"åĪĺ":5489,"ä¿ĿæĬ¤æĪĳä»¬çļĦåľ°çĲĥ":5490,"åī²":5491,"æºª":5492,"ç¿ħ":5493,"èħº":5494,"ä¿¡æģ¯åĴĮ":5495,"å²Ĺ":5496,"åĨĮ":5497,"åĪ°æĿ¥":5498,"éĻ¶":5499,"ä½Ĩåľ¨":5500,"ä¸»è¦ģæĺ¯":5501,"æĸĩæľ¬ä¸Ń":5502,"åı¯ä»¥å°Ĩ":5503,"éķ¿åŁİ":5504,"æĪĸèĢħåľ¨":5505,"éĺ¿éĩĮ":5506,"æ´¾å¯¹":5507,"ä¸Ľ":5508,"çļĦè§Ĵåº¦":5509,"æĺ¯éĿŀå¸¸éĩįè¦ģçļĦ":5510,"å¯¹æĤ¨":5511,"å£³":5512,"èĥ½å¤Łå¸®åĬ©":5513,"çĶŁæĪĲä¸ĢäºĽ":5514,"å¯º":5515,"åľ°éĿ¢":5516,"äººå·¥æĻºèĥ½å°Ĩä¼ļ":5517,"éĤ£æĪĳ":5518,"æķ°æį®åĴĮ":5519,"åŃĺåľ¨ä¸ĢäºĽ":5520,"èīºæľ¯å®¶":5521,"æ²Ļæ¼ł":5522,"çļĦæ°ĶåĢĻ":5523,"çļĦç¤¾äº¤":5524,"æĹ¶çļĦ":5525,"æľĢéĩįè¦ģçļĦæĺ¯":5526,"åı¯èĥ½æľī":5527,"ç»ĵæŀĦåĴĮ":5528,"ä¿ĿæĮģèº«ä½ĵåģ¥åº·":5529,"æĤŁ":5530,"å°ıäºĭ":5531,"é£İèĥ½":5532,"èĬĤçĽ®":5533,"åĸľåī§":5534,"çļĦæĬĢå·§":5535,"ç§ĭå¤©çļĦ":5536,"æŁ³":5537,"æ°´åĪĨ":5538,"æĺĵäºİ":5539,"å¯¹ä½ł":5540,"å¤ļåħĥ":5541,"åºĶå½ĵ":5542,"ä¸ĸçķĮä¸Ń":5543,"ç¯®çĲĥ":5544,"æģĴæĺŁ":5545,"æ°´çļĦ":5546,"åĲĦèĩª":5547,"å®ĩå®ĻçļĦ":5548,"å¯ĵ":5549,"æıĲé«ĺçĶŁäº§":5550,"ç»ĨèıĮ":5551,"çĤİçĤİ":5552,"´æľĽ":5553,"å¼ķäºº":5554,"è®¤çľŁ":5555,"ä»£çłģçīĩæ®µ":5556,"çªģçł´":5557,"çļĦæ£®æŀĹ":5558,"åĴĮæĬĢæľ¯":5559,"æĥ§":5560,"è¯·åĨĻä¸Ģç¯ĩåħ³äºİ":5561,"èĥ½æºĲæ¶ĪèĢĹ":5562,"åĴĮèĶ¬èıľ":5563,"åı¯ä»¥çĶ¨æĿ¥":5564,"æĤ¨åĸľæ¬¢":5565,"æĢ§æł¼":5566,"éĿŀå¸¸å¹¿æ³Ľ":5567,"æĺŁæľŁ":5568,"çİĭæĺŁ":5569,"æī©å¤§":5570,"çĽĳçĿ£åŃ¦ä¹ł":5571,"éĹ®æĪĳ":5572,"ä½ĨæĪĳ":5573,"åĴĮåĪĽæĸ°":5574,"é«ĺè´¨éĩı":5575,"çĲĥåĳĺ":5576,"æµģçķħ":5577,"åħ¨çĲĥèĮĥåĽ´åĨħ":5578,"åħ³æ³¨åĴĮ":5579,"çļĦä¾ĭåŃĲ":5580,"éħª":5581,"çļĦæĻ®åıĬ":5582,"é¬":5583,"çĶ¨åĵģ":5584,"æĺ¯å¦Ĥä½ķ":5585,"å°ĸ":5586,"åľ°çĲĨ":5587,"åĬ¨æĢģ":5588,"æķ°æį®åĪĨæŀĲ":5589,"å¤±è´¥":5590,"è¿ĩäºİ":5591,"ä¿¡çĶ¨":5592,"çĤ¹åŃĲ":5593,"çİ¯ä¿ĿçļĦéĩįè¦ģæĢ§":5594,"æ¼ı":5595,"æıĲåĩºäºĨ":5596,"ç²®":5597,"ç¿»è¯ĳçļĦ":5598,"çĽŁ":5599,"å¸¦æľī":5600,"èįīåľ°ä¸Ĭ":5601,"åĵĪåĵĪ":5602,"le":5603,"æĿ¥è§£åĨ³":5604,"åĩºéĹ¨":5605,"åĽĽåŃ£":5606,"çº¢æ¥¼æ¢¦":5607,"åļ":5608,"çļĦåĴĸåķ¡":5609,"çļĦä»£è¡¨":5610,"çİ¯ä¿Ŀæİªæĸ½":5611,"èįīåİŁ":5612,"ĸæģ¯":5613,"å°½å¿«":5614,"åĪĩæĪĲ":5615,"æĢİä¹ĪåĬŀ":5616,"ä¼¦æķ¦":5617,"ç»¼ä¸ĬæīĢè¿°":5618,"ä¸Ńå¤®":5619,"å®¶åħ·":5620,"åı¶åŃĲ":5621,"èĲ¥éĶĢçŃĸçķ¥":5622,"çļĦæ¤į":5623,"åľ°åĽ¾":5624,"å¯ĮåĲ«":5625,"æī®æ¼ĶçĿĢ":5626,"éģ¥è¿ľ":5627,"è½¨éģĵ":5628,"å¤§æµ·":5629,"å¹¶éĿŀ":5630,"çĻ½äºĳ":5631,"è¯·æıĲä¾ĽæĤ¨æĥ³è¦ģ":5632,"æĦıå¤§åĪ©éĿ¢":5633,"éĥ½æľīçĿĢ":5634,"æĸĩåŃ¦ä½ľåĵģ":5635,"èĪªç©º":5636,"ç»ĺçĶ»":5637,"çİ»":5638,"åĩıå°ĳæµªè´¹":5639,"æ¡Īä¾ĭ":5640,"æĺ¯æĪĳ":5641,"éĿŀå¸¸éĢĤåĲĪ":5642,"éħįæĸĻ":5643,"åħµ":5644,"éĢĤçĶ¨äºİ":5645,"è§ĴèĲ½":5646,"çĸ²åĬ³":5647,"æĤ¨è§īå¾Ĺ":5648,"åİĤ":5649,"å§ĭç»Ī":5650,"æŁĶåĴĮ":5651,"Ŀåįľ":5652,"åľ¨è¿Ļä¸ªåŃ£èĬĤ":5653,"è°·æŃĮ":5654,"è¢«å¹¿æ³ĽåºĶçĶ¨äºİ":5655,"åľ¨æŁĲäºĽæĥħåĨµä¸ĭ":5656,"æī£":5657,"ä½Ĩå®ĥ":5658,"åĲĦåĽ½":5659,"æ¡Īä»¶":5660,"æĤĦ":5661,"æ°´èµĦæºĲ":5662,"èĬ±å¼Ģ":5663,"æľºåĻ¨åŃ¦ä¹łåĴĮ":5664,"å¦ĤæŀľæĤ¨æĥ³":5665,"é¦Ļèķī":5666,"ç©¿è¿ĩ":5667,"çĥ§çĥ¤":5668,"æĪĳæĺ¯":5669,"èĥ¸":5670,"èıĩ":5671,"å¹¿æ³ĽçļĦ":5672,"èŀįåĮĸ":5673,"èĶ¬èıľåĴĮ":5674,"æķ°åŃĹåĮĸ":5675,"çĴĥ":5676,"æľĢéĩįè¦ģçļĦ":5677,"åĮ»çĸĹé¢ĨåŁŁ":5678,"åıĮæĸ¹":5679,"Ġå®ĥ":5680,"ĠAI":5681,"åºĻ":5682,"äººç±»ç¤¾ä¼ļ":5683,"åĩıç¼ĵ":5684,"åŃĹç¬¦":5685,"åľ¨å®¶éĩĮ":5686,"æĭĵå±ķ":5687,"è¿½æº¯åĪ°":5688,"çļĦåĳ³éģĵ":5689,"éĩįåĬĽ":5690,"çļĦç±»åŀĭ":5691,"éļĲèĹı":5692,"èĥľåĪ©":5693,"æĪĳä»¬çļĦçĶŁæ´»æĸ¹å¼ı":5694,"åĹ¯":5695,"éĤĢè¯·":5696,"è®¯":5697,"äººå·¥æĻºèĥ½çļĦæĸĩç«ł":5698,"é±¼ç±»":5699,"çļĦæ³¨":5700,"æľīäºĽäºº":5701,"é½Ĳ":5702,"åľ¨åĵªéĩĮ":5703,"åĲİæĿ¥":5704,"æĺİæľĪ":5705,"æ»ĭ":5706,"æ·±åİļ":5707,"åı¤é£İ":5708,"æľĹçİĽ":5709,"ç©ĨæľĹçİĽ":5710,"æĦıå¤ĸ":5711,"æŃĮè¯į":5712,"æĢģåº¦":5713,"çļĦå¤§å°ı":5714,"è¾ħåĬ©åĮ»çĶŁ":5715,"åĩºçļĦ":5716,"åĨħçļĦ":5717,"è®°ä½ı":5718,"é²ģ":5719,"è¿½éĢĲ":5720,"çĻĮçĹĩ":5721,"æľīæ°§":5722,"åıĹåĪ°äºĨ":5723,"äºĭé¡¹":5724,"è¿ĲèĲ¥":5725,"æĮĩåįĹ":5726,"é¤Ĳåħ·":5727,"äº«åıĹçĿĢ":5728,"çļĦæ²»çĸĹæĸ¹æ¡Ī":5729,"æĮĸæİĺ":5730,"ä¸Ģç»Ħ":5731,"æ¯ķ":5732,"æĺ¯ä¸Ģä¸ªåħħæ»¡":5733,"ä¸ªæĢ§åĮĸçļĦ":5734,"æ¸©å®¤æ°Ķä½ĵæİĴæĶ¾":5735,"åħįçĸ«åĬĽ":5736,"æĬ¹":5737,"ä½Ĩå®ĥä»¬":5738,"æ¯ıå¹´":5739,"å¾·åĽ½":5740,"åĴĮå»ºè®®":5741,"æı´":5742,"æĺ¥é£İ":5743,"å¤§æ°Ķå±Ĥ":5744,"çļĦéĢŁåº¦":5745,"æľīéĻĲ":5746,"è±¡å¾ģçĿĢ":5747,"łéģĵ":5748,"çļĦè®¾è®¡":5749,"çļĦä½ĵéªĮ":5750,"åĴĮä¸ªäºº":5751,"åī©":5752,"å¾Īä¹ĲæĦı":5753,"orm":5754,"çļĦéķ¿":5755,"è¿ĻäºĽæĸ¹æ³ķ":5756,"çļĦéĩįè¦ģç»ĦæĪĲéĥ¨åĪĨ":5757,"å¥ĸåĬ±":5758,"è´¦æĪ·":5759,"Ġå°Ĩ":5760,"å¾Īæ£Ĵ":5761,"å¥ĩå¹»":5762,"åıĳçĶŁäºĨ":5763,"åĮĹäº¬çļĦå¤©æ°Ķ":5764,"çļĦç¨ĭ":5765,"ç©ĨæľĹçİĽå³°":5766,"çļĦçħ":5767,"å¤ļåĲĥ":5768,"å¹¶å°Ĩ":5769,"åĲįè¨Ģ":5770,"æķĪåºĶ":5771,"åģļä»Ģä¹Ī":5772,"è¿ĺæĺ¯åħ¶ä»ĸ":5773,"NA":5774,"æĤ¨ä¹Łåı¯ä»¥":5775,"æĭľ":5776,"è§Ĩéĩİ":5777,"èº«ä½ĵçļĦ":5778,"åĳ½è¿Ĳ":5779,"å¥½çİ©":5780,"æ³ķå¾ĭæ³ķè§Ħ":5781,"è®¤è¯ĨåĪ°":5782,"ä¸¹":5783,"æľ¬è´¨":5784,"å¹³æĸ¹":5785,"è¶ħå¸Ĥ":5786,"ç¬¼":5787,"èħĬ":5788,"æĤ£èĢħçļĦ":5789,"è±ª":5790,"æĴŃæĶ¾":5791,"æĪĳæľīä¸Ģä¸ªéĹ®é¢ĺæĥ³éĹ®":5792,"æĶĢ":5793,"å®īåħ¨æĢ§":5794,"çŃĽ":5795,"ä¸įéĢĤ":5796,"æ³¥":5797,"èĩªçĦ¶çļĦ":5798,"ç½Ĺé©¬":5799,"çīĪæľ¬":5800,"è¿Ļæ¬¡":5801,"ç»ĻæĪĳè®²":5802,"è¯ĬæĸŃçĸ¾çĹħ":5803,"éĩįè¦ģçļĦè§Ĵèī²":5804,"å¹²åĩĢ":5805,"çļĦæĻ¯è±¡":5806,"æĿ¥åĪ°":5807,"æĤī":5808,"é£İåĳ³":5809,"æĺ¥èĬĤ":5810,"åħ´è¶£åĴĮ":5811,"äººéĻħåħ³ç³»":5812,"æįī":5813,"èĥİ":5814,"åħ·ä½ĵæĿ¥è¯´":5815,"å°¤åħ¶æĺ¯åľ¨":5816,"éĥ½åºĶè¯¥":5817,"å¾Īå¤§çļĦ":5818,"ä¸ºäºĨå¸®åĬ©æĤ¨":5819,"çļĦçŃĶæ¡Ī":5820,"åĩºèī²":5821,"èĩ³äºİ":5822,"å¿½è§Ĩ":5823,"çĶŁçĲĨ":5824,"éĽķ":5825,"åŁİåł¡":5826,"ç§¯ç´¯":5827,"ç¾½":5828,"ä¸ľäº¬":5829,"æľ¨æĺŁ":5830,"çļĦæį":5831,"èĤĸ":5832,"åģļåĩºè´¡çĮ®":5833,"è´µçļĦ":5834,"å®ĺæĸ¹ç½ĳç«Ļ":5835,"è¿ľç¨ĭ":5836,"æĪĳæĺ¯ä¸Ģä¸ª":5837,"æ·±æ·±":5838,"éĵ¶æ²³":5839,"ä¸Ģå¹ħ":5840,"ä¸įåĪ°":5841,"æ¸ħåįķ":5842,"æľīå¾Īå¤ļç§į":5843,"çŀ¬éĹ´":5844,"æľ¯è¯Ń":5845,"åĮ»çĸĹæľįåĬ¡":5846,"ä¸ĸçķĮåĲĦåľ°":5847,"å¹¿æ³ĽåºĶçĶ¨äºİ":5848,"åıįæĺłäºĨ":5849,"çļĦé¦ĸ":5850,"æĪĳå·²ç»ı":5851,"æĽ³":5852,"ä¼ĺåħĪ":5853,"æ³¨æĦıåĬĽ":5854,"åħ¶ä¸ŃåĮħæĭ¬":5855,"æĺ¨å¤©":5856,"åĴĮæĶ¯æĮģ":5857,"çĶŁæ´»ä¸ŃçļĦ":5858,"é¹ħ":5859,"çıłç©ĨæľĹçİĽå³°":5860,"æ¼Ķè®²":5861,"æįŁå¤±":5862,"èĺ":5863,"æ´ªæ°´":5864,"ä½¿çĶ¨çİ¯ä¿Ŀ":5865,"rain":5866,"11":5867,"åĪ¸":5868,"è¿Ļä»½":5869,"èĢĮåľ¨":5870,"ä¸ŃåĽ½åı¤ä»£":5871,"é½¿":5872,"éĺĲ":5873,"äºīè®®":5874,"çĽ²":5875,"åĸ·":5876,"è¯ķçĿĢ":5877,"è¾ĥä½İ":5878,"åĬ³åĬ¨":5879,"¯æķĳ":5880,"ä¸Ģèĩ´":5881,"çĶĺ":5882,"æŀ¯":5883,"éľŀ":5884,"åıĸåĩº":5885,"è·¯å¾Ħ":5886,"æĿ¥è¿Ľè¡Į":5887,"æĢ»ç»Ł":5888,"åĭĴ":5889,"èģĮä½į":5890,"è´¢å¯Į":5891,"Ġæĸĩç«ł":5892,"å¦Ĥä½ķåĪ¶ä½ľ":5893,"è£¤":5894,"æĶ¶åħ¥":5895,"ä»İèĢĮæıĲé«ĺ":5896,"å¹²çĩ¥":5897,"çĪ±çļĦ":5898,"æĪĳéľĢè¦ģçŁ¥éģĵ":5899,"è´¢äº§":5900,"æĽ¿æį¢":5901,"äººå·¥æĻºèĥ½åľ¨åĮ»åŃ¦":5902,"çĸ«èĭĹæİ¥ç§į":5903,"ä»¥åĩıå°ĳ":5904,"åı¯ä»¥è¿½æº¯åĪ°":5905,"èĤ¿":5906,"çĭ¼":5907,"åºĶçĶ¨çļĦæĸĩç«ł":5908,"æīĢåľ¨çļĦåŁİå¸Ĥ":5909,"æĪĳå¾Īä¹ĲæĦıå¸®åĬ©æĤ¨":5910,"æ²»çĸĹæĸ¹æ¡Ī":5911,"è´Łæĭħ":5912,"æ½ľåĬĽ":5913,"è¡¥åħħ":5914,"æĤ¨å¯¹":5915,"ä¸ĭä¸Ģä¸ª":5916,"æĮĳ":5917,"ä»İä¸Ń":5918,"åĮħå®¹":5919,"èĿīé¸£":5920,"çļĦä¸įåĲĮ":5921,"äººä¸İ":5922,"éĹ¹":5923,"ä½łè¿ĺåı¯ä»¥":5924,"èµĦéĩĳ":5925,"åĩłå¹´":5926,"æŀģç«¯å¤©æ°Ķ":5927,"æĲºå¸¦":5928,"çļĦå¢ŀåĬł":5929,"æĿ¥ç¡®å®ļ":5930,"è¯·æ±Ĥ":5931,"ä¸įä»ħåı¯ä»¥":5932,"èĬĤçĤ¹":5933,"åįıè°ĥ":5934,"è¿Ļä¸ªåĲįåŃĹ":5935,"æıĲåıĸè¿Ļç¯ĩæĸĩç«ł":5936,"å°½æĥħ":5937,"çļĦå®ļä¹ī":5938,"è¿ģ":5939,"èĻ¾":5940,"æııè¿°ä¸Ģä¸ª":5941,"è¡Ģæ¶²":5942,"æĭ¯æķĳ":5943,"è¯»ä¹¦":5944,"åľ¨ä¸įåĲĮ":5945,"åľ¨éĤ£éĩĮ":5946,"çļĦæ»":5947,"è´¾":5948,"åı¯èĥ½åĮħæĭ¬":5949,"çĽ¸æ¯Ķ":5950,"èİİ":5951,"å±±æ°´":5952,"åĽ´ç»ķ":5953,"ç¾İåĳ³çļĦ":5954,"æĪĳä¸įèĥ½":5955,"åı¯ä»¥åĳĬè¯īæĪĳ":5956,"é¥±":5957,"èĥĥ":5958,"éĢīæĭ©ä¸Ģä¸ª":5959,"åĪĽéĢłåĩº":5960,"å·´åİĺ":5961,"æĤłä¹ħ":5962,"Ġå¦ĤæŀľæĤ¨":5963,"ç¾İåħĥ":5964,"èŀįåħ¥":5965,"ç¢³æ°´åĮĸåĲĪçī©":5966,"æĳĩæĽ³":5967,"å«©":5968,"ä¼ļå¯¹":5969,"è¯Ĺåı¥":5970,"éĴĵ":5971,"åĲ«éĩı":5972,"çİ»çĴĥ":5973,"Ġå°ıæĺİ":5974,"æĥ³åĪ°":5975,"è¯´è¯Ŀ":5976,"æ¢¯":5977,"å¦Ĥæŀľä½łæĥ³è¦ģ":5978,"æ¥ļ":5979,"ä¹ĺåĿĲ":5980,"ç±»ä¼¼äºİ":5981,"å¾ĴæŃ¥æĹħè¡Į":5982,"æĤ¨è¿ĺåı¯ä»¥":5983,"æĸ¹æ³ķåı¯ä»¥":5984,"çļĦäººçī©":5985,"å¼¦":5986,"è¯·çĶ¨":5987,"æ¯ıä¸Ģæ¬¡":5988,"åłµ":5989,"è¿Ľè¡ĮåĪĨæŀĲ":5990,"çļĦæĶ¶":5991,"è°ľè¯Ń":5992,"çļĦéĥ¨åĪĨ":5993,"åĭ¤":5994,"çĵ£":5995,"çļĦæĹ¶åħī":5996,"...":5997,"æĭĤè¿ĩ":5998,"çļĦæłĩé¢ĺ":5999,"rainst":6000,"æĸĩæ¡£":6001,"å°ĨæĽ´åĬł":6002,"çļĦçĶŁçī©":6003,"ä¹ĭä¸Ģæĺ¯":6004,"è¡Ģåİĭ":6005,"ç²ĺè´´":6006,"å½»":6007,"æ¯«":6008,"æ¡¶":6009,"ä¸ĵéĹ¨":6010,"èįīåľ°":6011,"æĺĨ":6012,"ä½Ĩè¿Ļ":6013,"åħ¨çĲĥæ°ĶåĢĻåıĺåĮĸ":6014,"ä¹Łæĺ¯ä¸Ģä¸ª":6015,"æĪĺæĸĹ":6016,"æ¶Īå¤±":6017,"è¶ħçº§":6018,"åŃ¦ä¹łæĸ°":6019,"æ»¤":6020,"äºĶè¨Ģç»Ŀåı¥":6021,"å·´åİĺå²Ľ":6022,"å¹¶ç»Ļåĩº":6023,"è¯Ńåı¥":6024,"é¥®åĵģ":6025,"åĨįæĿ¥":6026,"çļĦæ²ŁéĢļ":6027,"å©ļç¤¼":6028,"äººèĬĤ":6029,"è¿Ļå®¶":6030,"æĥĳ":6031,"æıĲéĹ®":6032,"ç»ĻæĪĳä¸ĢäºĽåħ³äºİ":6033,"çĹħæĥħ":6034,"å¹²æĹ±":6035,"ç¼ĸç¨ĭè¯Ńè¨Ģ":6036,"æĿ¥å¸®åĬ©":6037,"å¹¶ä¸º":6038,"åĩıæİĴ":6039,"é¢Ī":6040,"æł¹æį®ç»Ļå®ļçļĦ":6041,"åĸľæĤ¦":6042,"æłĩçŃ¾":6043,"æķ£æĸĩ":6044,"å¯¹çİ¯å¢ĥçļĦå½±åĵį":6045,"åĮħè£ħ":6046,"è¾£æ¤Ĵ":6047,"æ¼Ĥäº®":6048,"çļĦè´£ä»»":6049,"å®ĥèĥ½å¤Ł":6050,"åģ¥åº·çĬ¶åĨµ":6051,"æīĵéĢł":6052,"äº§çĶŁçļĦ":6053,"å½¢æĪĲäºĨ":6054,"è¯·æĤ¨":6055,"æ¶ĪéĻ¤":6056,"éĹ»åĲį":6057,"çļĦè¡£æľį":6058,"æ¸łéģĵ":6059,"å°ıåŀĭ":6060,"æ²»çĲĨ":6061,"å¤º":6062,"éĹ®é¢ĺåĲĹ":6063,"åĿĢ":6064,"æıĲä¾ĽæĽ´å¥½çļĦ":6065,"æĪĳå¸ĮæľĽ":6066,"åĲİä»£":6067,"æ¯ĶèµĽä¸Ń":6068,"éĶ»çĤ¼èº«ä½ĵ":6069,"ä¸ĢèĪ¬æĿ¥è¯´":6070,"èĥ½å¸®æĪĳ":6071,"åĩıå°ĳä½¿çĶ¨ä¸Ģæ¬¡æĢ§":6072,"æĺı":6073,"åĴĮæĹ¶éĹ´":6074,"åį³å°Ĩ":6075,"èĬĿå£«":6076,"rainstorm":6077,"çļĦé£Łåĵģ":6078,"çĽĨ":6079,"ç®Ģè¦ģ":6080,"åĸĦèī¯":6081,"é¢ĳç¹ģ":6082,"Ġç»¼ä¸ĬæīĢè¿°":6083,"çļĦåĲ«ä¹ī":6084,"åĴĮæµ·":6085,"åı¯ä»¥çĶ¨":6086,"å½ĵä»£":6087,"çģ«è½¦":6088,"çļĦæĥ³è±¡":6089,"åľ¨ä½¿çĶ¨":6090,"è¶ĬæĿ¥è¶Ĭå¤ļçļĦ":6091,"æıĲä¾ĽçļĦ":6092,"çĶŁæĪĲä»»åĬ¡":6093,"å§ĵ":6094,"éĩĳèī²":6095,"é©¬æĭī":6096,"çļĦæĻºæħ§":6097,"å±ķçİ°åĩº":6098,"el":6099,"æĽ´åĸľæ¬¢":6100,"ä½ĵç§¯":6101,"æ¬¢ä¹Ĳ":6102,"æŀģå¤§":6103,"ç³ĸåĪĨ":6104,"è¦ģçĤ¹":6105,"éĿ¢è¯ķ":6106,"ä»¥åıĬå¦Ĥä½ķ":6107,"ä»¥ä¸ĭæĺ¯åħ³äºİ":6108,"äºļé©¬":6109,"å²Ĺä½į":6110,"åºŀ":6111,"æĿ¥äºĨ":6112,"æıĲä¾ĽæĽ´åĬł":6113,"æİ¨åĩº":6114,"æ¸ħé£İ":6115,"éĥ½æľīåħ¶":6116,"éĢıè¿ĩ":6117,"æĹłäººé©¾é©¶":6118,"åĴĮçĶŁæ´»":6119,"æŀģå¤§åľ°":6120,"æľīæ°§è¿ĲåĬ¨":6121,"åĲĽ":6122,"æĸ°æĬĢæľ¯":6123,"é¬¼":6124,"éĿ¢ç²ī":6125,"ç¨Ģ":6126,"æİ¥æĶ¶":6127,"å¼Ģå§ĭäºĨ":6128,"èµ¢å¾Ĺ":6129,"çļĦæ¤įçī©":6130,"æħ°":6131,"èħ¹":6132,"æİ¨æĸŃ":6133,"æĶ¶èİ·":6134,"åĴĮä¸Ģä¸ª":6135,"æĺ¯åŁºäºİ":6136,"ä¹ŁéĿŀå¸¸":6137,"ä¿ĿæĮģèī¯å¥½çļĦ":6138,"è®©æĪĳä»¬æĿ¥":6139,"æĪĳä»¬éľĢè¦ģéĩĩåıĸ":6140,"å®ĩå®Ļä¸Ń":6141,"åľ¨æĹ¥å¸¸çĶŁæ´»ä¸Ń":6142,"çĽ¾":6143,"ç±»åŀĭçļĦçĶµå½±":6144,"ç»ıåİĨäºĨ":6145,"ç´§å¯Ĩ":6146,"å¼¯":6147,"èĵĿå¤©":6148,"è¿Ļä¸¤":6149,"åĬĽåº¦":6150,"ä½¿çĶ¨äºĨ":6151,"æ¬¢å¿«":6152,"çĶ»åį·":6153,"å¡ĳæĸĻåŀĥåľ¾":6154,"åĽ¾ä¹¦é¦Ĩ":6155,"äºļé©¬éĢĬ":6156,"ä»ģ":6157,"åĴĮéģĵå¾·":6158,"åħ³èģĶ":6159,"ä»ĸäººçļĦ":6160,"èĩªçĦ¶æĻ¯è§Ĥ":6161,"è¿ľç¦»":6162,"èĢĲå¿ĥ":6163,"è¿Ī":6164,"çİ¯ä¿Ŀäºĭä¸ļ":6165,"ç²¾åĬĽ":6166,"çħ§èĢĢ":6167,"ç»ıæµİåıĳå±ķ":6168,"çļĦæŃ¥éª¤":6169,"çļĦæĹħè¡Į":6170,"çİ«":6171,"å·²çŁ¥":6172,"æľīäºº":6173,"åĮĨ":6174,"æ¬º":6175,"å¤ĸéĥ¨":6176,"åĨ°å·Ŀ":6177,"æĪĲåĬŁåľ°":6178,"çļĦçħ§":6179,"èĥ½å¤Łåľ¨":6180,"ä¸´åºĬ":6181,"çĽĳæİ§":6182,"ä¼´ä¾£":6183,"åĪĹä¸¾ä¸ĢäºĽ":6184,"è®©å®ĥ":6185,"å¾Īéļ¾":6186,"åĲĦç§įåĲĦ":6187,"çļĦæĶ¹åıĺ":6188,"å°ıäºĭåģļèµ·":6189,"å½±çīĩ":6190,"å½±åĵįåĪ°":6191,"åıĳçİ°èĩªå·±":6192,"çļĦæķ°åŃĹ":6193,"åıĳçĶŁåľ¨":6194,"éļĲç§ģä¿ĿæĬ¤":6195,"èĪªçıŃ":6196,"æĽ´æ·±åħ¥":6197,"æ²¡éĹ®é¢ĺ":6198,"çĢ":6199,"åİ¦":6200,"èĵĿèī²çļĦ":6201,"ç»ļ":6202,"ä»Ģä¹Īç±»åŀĭçļĦ":6203,"è¡Ģç®¡":6204,"å·¥ç¨ĭå¸Ī":6205,"æĹ¶ç©º":6206,"ä½ĵçļĦ":6207,"æĮ¯":6208,"æĶ¾ç½®":6209,"åĲĦè¡Į":6210,"ä¼ĺè´¨":6211,"æĪĳåı¯ä»¥å¸®ä½ł":6212,"åĩĨå¤ĩå¥½":6213,"çİ«çĳ°":6214,"Ġå¯¹äºİ":6215,"åŃ¦èĢħ":6216,"è¿ĺè¦ģ":6217,"çļĦæ°´æŀľ":6218,"çļĦç¨³":6219,"17":6220,"ä¸§":6221,"å°ĨæĪĲä¸º":6222,"æİĴåĪĹ":6223,"å¥ĩå¦Ļ":6224,"æĿİæĺİ":6225,"éī":6226,"Ġä¾ĭå¦Ĥ":6227,"ä¸ĢäºĽäºº":6228,"æ¤ħ":6229,"åĮ¹éħį":6230,"APP":6231,"èĪŁ":6232,"èĥ¡èĲ":6233,"ç§ĳåŃ¦çłĶç©¶":6234,"æĿİçĻ½":6235,"è±ĨèħĲ":6236,"çļĦä¸»æĹ¨":6237,"å¦Īå¦Ī":6238,"èĥ¡èĲĿåįľ":6239,"ä¹Łä¸į":6240,"é«ĺéĢŁ":6241,"åĲĦä¸ļ":6242,"æĢĿç»ª":6243,"åłĨ":6244,"åĲĦè¡ĮåĲĦä¸ļ":6245,"éī´":6246,"èĥ½åĳĬè¯īæĪĳ":6247,"æĸĩç«łçļĦ":6248,"è¿Ľè¡ĮäºĨ":6249,"é¥²":6250,"æ¹¿åº¦":6251,"åįµ":6252,"æŃ¤æĹ¶":6253,"çĲĥéĺŁ":6254,"æĪĳåı¯ä»¥å¸®æĤ¨":6255,"åħ»æĪĲ":6256,"èĽĩ":6257,"æĮĳæĪĺåĴĮ":6258,"è¯·ç»ĻæĪĳä¸ĢäºĽ":6259,"æ³Ħéľ²":6260,"åľ¨æķĻèĤ²":6261,"æµ·æĭĶ":6262,"äººå·¥æĻºèĥ½çļĦç§ĳæĻ®æĸĩç«ł":6263,"24":6264,"ä»¥éģ¿åħį":6265,"çļĦæĤ":6266,"æĹ¥èĲ½":6267,"æĽ´åĬłé«ĺæķĪ":6268,"çºªå¿µ":6269,"ä¿Ħ":6270,"çĶŁæĪĲä¸Ģä¸ªåħ³äºİå¤ıå¤©":6271,"é£ĺèĲ½":6272,"èĺĳ":6273,"çļĦä½ľåĵģ":6274,"æĪĳè§īå¾Ĺ":6275,"çĦĻ":6276,"æĻºèĥ½æīĭæľº":6277,"è¿ĽåĮĸ":6278,"æ¯Ķçī¹":6279,"çİ¯ä¿Ŀè¡ĮåĬ¨":6280,"åĲĮæĹ¶ä¹Łåı¯ä»¥":6281,"ä¼´éļıçĿĢ":6282,"è¡£çī©":6283,"æĪ·å¤ĸè¿ĲåĬ¨":6284,"çļĦæıĲé«ĺ":6285,"lo":6286,"é«ĺæ¸©":6287,"åĿĲåľ¨":6288,"çļĦçĥŃéĹ¨":6289,"ç³Ĭ":6290,"åĢº":6291,"æĺŁéĻħ":6292,"æıĲåıĸæĸĩç«łä¸Ń":6293,"èĺĳèıĩ":6294,"çģ¿":6295,"ä»¥æıĲé«ĺ":6296,"åı¯åĽŀæĶ¶":6297,"ä¹Łè¦ģ":6298,"é£İéĽ¨":6299,"åıĭæĥħ":6300,"æĥĬåĸľ":6301,"éľĢè¦ģæł¹æį®":6302,"è°ĥæĸĻ":6303,"éĺĲè¿°":6304,"è¢Ń":6305,"èĻ¹":6306,"å¸ĮèħĬ":6307,"çī¹åĪ«çļĦ":6308,"å°¿çĹħ":6309,"çĭ®åŃĲ":6310,"åĴĮåĨ³çŃĸ":6311,"äº«çĶ¨":6312,"èªīä¸º":6313,"æĪĸä¸į":6314,"æĸ¹éĿ¢çļĦåºĶçĶ¨":6315,"ç«Ļåľ¨":6316,"è´·æ¬¾":6317,"ĸæģ¯åľ°":6318,"åĴĮæľªæĿ¥":6319,"å¸½":6320,"æľĢéĢĤåĲĪ":6321,"åıįæĢĿ":6322,"çļĦåħīèĬĴ":6323,"çļĦæİ¢ç´¢":6324,"æĶ¿åºľåĴĮä¼ģä¸ļ":6325,"é²ľèĬ±":6326,"å¥¶éħª":6327,"çļĦæĸ¹åĲĳ":6328,"å¯Ħ":6329,"åĬ¨æ¤įçī©":6330,"ä½łåı¯ä»¥åľ¨":6331,"éĴ¢çĲ´":6332,"æ¨ª":6333,"å¾ĭå¸Ī":6334,"æ¯ıä¸ªäººéĥ½æľī":6335,"å¸®æĪĳæĥ³ä¸Ģä¸ĭ":6336,"ä¸įå°ĳ":6337,"åį¢":6338,"æ°Ķæģ¯":6339,"è¯Ńä¹ī":6340,"åľ°åĮºçļĦ":6341,"æĺ¯ä¸Ģå¹´ä¸ŃæľĢ":6342,"æĹ¦":6343,"åıĤæķ°":6344,"ä»¥ä¸ĭæĺ¯ä¸Ģç¯ĩ":6345,"çĶŁçī©åŃ¦":6346,"æĶ¿åºľåºĶè¯¥":6347,"å£®è§Ĥ":6348,"å°½åı¯èĥ½åľ°":6349,"å±ıå¹ķ":6350,"æľīäºĨ":6351,"æĢ¡":6352,"éľĢè¦ģèĢĥèĻĳ":6353,"åĮħåĲ«äºĨ":6354,"åĬŀæ³ķ":6355,"ç¬¬äºĮä¸ª":6356,"çĽĽå¼Ģ":6357,"çļĦçĭ¬çī¹":6358,"çļĦç¨³å®ļ":6359,"çİ¯å¢ĥçļĦ":6360,"60":6361,"çī§":6362,"çīµ":6363,"ç³ĸå°¿çĹħ":6364,"ç²ĴåŃĲ":6365,"äººå·¥æĻºèĥ½è¿ĺåı¯ä»¥":6366,"ä»Ģä¹Īæł·":6367,"çļĦåħ³éĶ®ä¿¡æģ¯":6368,"çļĦç¡":6369,"å¾Īå¿«":6370,"å¨ľ":6371,"åı¯æĮģç»ŃæĢ§":6372,"ä¸ĸçķĮä¸ĬæľĢé«ĺçļĦå±±å³°":6373,"çļĦæİ¨èįĲ":6374,"14":6375,"åĨĻçļĦæĸĩç«ł":6376,"è°Īè®º":6377,"äººéĹ´":6378,"åĽ¾æ¡Ī":6379,"èħĶ":6380,"åĮĸåŃ¦åıįåºĶ":6381,"ä¸ĢçĽ´åľ¨":6382,"æ¦Ħ":6383,"ä¹Ļ":6384,"æľīçĶ¨":6385,"è´«":6386,"åĿĽ":6387,"è£Ļ":6388,"æľºåĻ¨åŃ¦ä¹łæĺ¯ä¸Ģç§į":6389,"çħ§é¡¾":6390,"é¾Ł":6391,"Ħæ¦Ħ":6392,"éľĢè¦ģåľ¨":6393,"åĲĮä¹īè¯į":6394,"è¾ŀ":6395,"è°ĵ":6396,"å¸®åĬ©äººä»¬":6397,"æĿ¡ä»¶ä¸ĭ":6398,"åı¯ä»¥å¸®åĬ©äººä»¬":6399}